<s>
<e>
<unk>
,
.
the
in
of
and
die
der
to
und
a
is
that
zu
for
den
von
ist
on
für
an
mit
with
(
das
The
)
be
are
auf
des
as
I
-
eine
this
Sie
im
:
it
es
nicht
werden
&quot;
we
ein
by
have
dass
dem
sich
not
Die
you
wir
will
auch
which
or
at
from
was
sind
wird
has
als
um
In
s
ich
can
oder
all
our
also
haben
über
European
-@@
so
einer
/
hat
!
?
sie
&apos;
wie
einen
er
zur
Das
aus
bei
Union
your
&apos;s
its
Ich
können
–
We
but
am
one
would
more
einem
’
their
been
nach
This
zum
It
Wir
diese
uns
nur
un@@
durch
should
kann
Mr
Der
de
;
dieser
do
very
Commission
must
...
Es
vor
er@@
us
daß
they
Kommission
there
noch
new
“
wurde
other
time
ver@@
only
like
EU
an@@
aber
about
re@@
Hotel
Herr
man
wenn
S@@
sehr
sein
müssen
President
t
these
in@@
i
up
who
e
war
o
en
B@@
no
ten
diesem
k@@
te
en@@
if
P@@
ge@@
alle
A
s@@
out
mehr
%
any
Europäischen
Europe
into
T@@
were
A@@
people
t@@
2
Parliament
bis
möchte
G@@
K@@
such
eines
ab@@
what
D@@
1
use
States
d@@
C@@
than
H@@
countries
report
be@@
my
Member
vom
need
ihre
when
his
some
most
Präsident
well
gibt
M@@
p@@
e@@
F@@
now
hotel
first
unter
sowie
work
dieses
E@@
b@@
make
them
Council
many
f@@
L@@
important
N@@
m
between
y
ing
o@@
way
n@@
hier
g@@
m@@
system
z@@
take
because
zwischen
able
da
ein@@
muss
c@@
3
An@@
W@@
Bericht
keine
„
unsere
he
al@@
Ver@@
made
information
Ihnen
ch@@
Parlament
years
R@@
just
If
had
support
anderen
two
&#91;
over
y@@
&#93;
world
those
d
Mitgliedstaaten
where
u@@
Wenn
Europa
immer
”
O@@
dies
li@@
policy
dann
i@@
me
being
de@@
v@@
ed
aus@@
Im
st@@
sch@@
V@@
ter
di@@
may
diesen
gegen
end
a@@
damit
even
wurden
Ab@@
Diese
good
see
5
al
right
Frau
year
order
ers
4
Zeit
area
l@@
ent@@
Ihre
unserer
gen
here
habe
ti@@
ung
part
place
ar@@
You
seine
same
market
jedoch
h@@
sondern
k
le
after
l
Europäische
through
el@@
ts
possible
neue
As
10
ation
political
j@@
own
I@@
&amp;
Menschen
heute
There
could
used
Jahr
then
economic
For
development
want
si@@
.@@
ri@@
Sch@@
within
J@@
Be@@
bereits
or@@
r@@
ro@@
rights
ate
how
Z@@
auf@@
both
Ein@@
finden
against
find
mich
sollte
europäischen
much
international
therefore
Jahren
ihrer
neuen
denen
ge
zu@@
ohne
under
does
andere
le@@
vor@@
country
on@@
point
room
es@@
public
g
at@@
Rat
um@@
zwei
without
sollten
Entwicklung
free
Frage
service
last
services
number
great
machen
Re@@
allen
ganz
ra@@
still
bietet
available
w@@
geht
n
Mit
different
liegt
fact
say
Aus@@
view
social
u
viele
Ein
In@@
ungs@@
ungen
set
la
course
Welt
already
Unternehmen
6
se
before
future
believe
dazu
too
get
That
U@@
el
know
weil
today
jetzt
wieder
products
p
sten
3@@
über@@
30
20
But
denn
seiner
per
te@@
cannot
case
c
Er@@
think
Informationen
Lage
2009
th@@
city
darauf
dis@@
process
her
go
Bereich
data
am@@
offers
level
einige
day
ar
em@@
Maßnahmen
schon
dafür
selbst
tes
ern
human
So
rooms
Commissioner
quality
situation
during
geben
financial
Vor@@
ihren
Jahre
ihr
b
best
ated
national
Herrn
x
high
bin
sagen
issue
Eine
Al@@
Dies
said
example
mir
Arbeit
viel
debate
st
et
lo@@
allem
means
every
ob
small
ab
7
question
würde
ch
Our
gut
including
meine
sp@@
proposal
ale
since
However
et@@
help
stehen
All
wollen
enden
ens
z
business
Land
unseren
each
e-@@
ische
Für
op@@
form
stellen
access
offer
long
problem
Und
ins
China
ste
kommen
bar
la@@
is@@
it@@
Zimmer
etwas
clear
während
position
8
con@@
wo
particular
ad@@
Länder
nun
Wie
ischen
se@@
lassen
h
waren
möglich
areas
doch
give
next
few
ter@@
measures
15
common
S
provide
agreement
liche
Committee
4@@
Un@@
x@@
co@@
based
put
St@@
im@@
seit
energy
2@@
taken
On
citizens
2010
large
insbesondere
ent
�
ensure
back
steht
again
systems
sehen
ger
erhalten
three
come
Unterstützung
ersten
vi@@
&#124;
Rahmen
further
Art
problems
security
company
change
Ländern
far
f
r
der@@
Internet
Zusammenarbeit
politischen
while
2008
Parlaments
ber@@
Teil
using
ur@@
necessary
du
50
ma@@
beim
why
given
located
however
shall
Con@@
ende
stay
besteht
us@@
To
T
Fall
ting
Y@@
vote
soll
life
Vorschlag
With
ert
ta@@
eren
They
cooperation
tun
einfach
group
needs
lich
Bei
always
real
down
At
Stadt
Group
X@@
And
os
seinen
C
ke
ating
lichen
law
Fragen
wichtig
gen@@
ap@@
ja
deren
Problem
drei
einmal
hope
wäre
USA
as@@
United
Ziel
letzten
ag@@
Namen
main
dabei
action
less
km
better
unter@@
Bürger
12
sk@@
What
around
EU-@@
men
House
Kollegen
5@@
ler
ck@@
große
ac@@
qu@@
ted
power
working
großen
did
worden
protection
bringen
land
po@@
ly
Daten
Mar@@
System
Was
ten@@
Recht
Auf
Verfügung
D
production
weiter
Er
programme
Ihr
ger@@
current
zi@@
welche
special
full
Seite
Bedeutung
These
Community
become
au@@
ant
legal
Aber
US
Sicherheit
Auch
When
centre
ic
to@@
terms
present
ations
together
Möglichkeit
whether
trade
particularly
open
bi@@
wissen
another
sh@@
chen
E
18@@
ol@@
page
gehen
eigenen
9
-S@@
children
em
Nach
bieten
management
old
result
basis
Regierung
Als
*
ei@@
100
ul@@
Mrs
muß
Ar@@
que
region
site
gi@@
conditions
2007
Thema
é@@
issues
les
davon
könnte
alles
pro@@
daher
Probleme
aller
state
companies
om@@
kein
ine
stellt
pre@@
ne
darüber
ings
experience
line
weitere
ak@@
ser@@
Kunden
Staaten
befindet
certain
führen
Weise
control
sen
close
Kommissar
6@@
ne@@
water
sowohl
B
Politik
second
women
O
Ihrer
role
ates
various
erreichen
2000
especially
her@@
location
industry
whole
modern
German
mo@@
sector
besonders
really
Euro
Ende
Ro@@
hatte
ie
ges
matter
government
done
meiner
making
Zukunft
health
7@@
look
local
private
wirklich
ous
account
Service
unterstützen
unser
25
Beispiel
+
ihnen
Mo@@
tra@@
budget
natürlich
create
entfernt
innerhalb
name
verschiedenen
schen
age
specific
global
inter@@
Ge@@
vielen
staff
ere
Germany
respect
gegenüber
ci@@
erte
sen@@
research
days
ds
going
che
Rolle
Richtlinie
major
den@@
di
hand
19@@
software
Weg
ze
internationalen
million
möchten
kommt
2006
bo@@
_
tions
00
list
zwar
fully
ä@@
something
ken
Ihren
project
several
8@@
Bo@@
away
itself
politische
continue
Frauen
start
Co@@
no@@
direkt
da@@
est
rapporteur
resolution
dort
t-@@
ve
crisis
europäische
Hotels
Tag
hi@@
P
often
000
ask
Seiten
excellent
so@@
erste
range
man@@
Auf@@
ding
EUR
regard
wish
ans
gentlemen
ing@@
Ma@@
Alle
Hier
least
New
mi@@
general
Um
single
transport
Pro@@
He
off
me@@
following
stand
per@@
rules
price
9@@
ex@@
isch
welcome
third
food
growth
personal
money
Le@@
directive
red
Programm
little
once
Artikel
environment
Meinung
found
side
tri@@
arbeiten
online
ts@@
a-@@
field
est@@
subject
Uhr
ko@@
towards
par@@
De@@
beiden
until
Lösung
product
things
institutions
11
customers
Situation
Über@@
unserem
nehmen
gesagt
En@@
pro
World
fast
ir@@
Madam
No
ut@@
wei@@
Region
ha@@
Fraktion
Zu@@
Dieses
F
Zusammenhang
increase
Di@@
individual
him
res
town
weniger
version
thank
standards
family
opportunity
erten
ob@@
design
Hilfe
ber
Produkte
fen
®
Treaty
Ex@@
los
del
building
40
rather
&apos;t
positive
y-@@
let
quite
activities
su@@
home
Präsidentin
M
technology
Mittel
elle
call
Arbeits@@
approach
Par@@
re
Sp@@
jeder
interest
2005
provided
Leben
bitte
th
gilt
resources
Deshalb
value
ster
daran
L
un
nen
light
Haus
rate
aid
forward
yet
economy
fi@@
via
do@@
wi@@
sogar
etwa
schaffen
bzw.
Software
period
ce
ens@@
An
solution
Grund
Members
agree
members
September
might
R
include
key
zen
Millionen
ot@@
having
Th@@
macht
Se@@
Um@@
X
ou@@
hinaus
taking
dessen
halten
gemacht
ors
Europas
alen
indem
decision
times
International
among
ladies
art
minutes
Schutz
After
State
d-@@
points
costs
ur
due
proposals
ally
allow
play
ö@@
nämlich
One
gt
amendments
len
text
sti@@
Unsere
sche
Dieser
content
gra@@
Deutschland
framework
safety
2004
ho@@
24
Kinder
ebenfalls
w
erung
ung@@
18
words
Unter@@
reason
14
fer@@
ihn
makes
il@@
einigen
ü@@
ator
enjoy
progress
called
website
0@@
adopted
TV
ben
show
seinem
.com
v
brauchen
ons
ati@@
all@@
ses
gute
ene
ec@@
sicher
Mon@@
&apos;@@
unterstützt
mit@@
provides
left
effective
difficult
station
Kon@@
ihm
air
others
ischer
darf
Rates
Website
politik
projects
easy
Punkt
legislation
Aussprache
Personen
ach@@
views
opinion
é
darin
Form
ka
16
results
favour
mon@@
above
application
gu@@
Qualität
known
contact
ra
for@@
responsibility
öffentlichen
du@@
Finanz@@
groups
attention
policies
Berlin
ali@@
simply
pi@@
Restaurant
addition
beautiful
non-@@
concerned
gerade
dürfen
tu@@
questions
short
Da
meisten
glaube
behalf
led
nationalen
je
over@@
ideal
2003
Bar@@
genau
Po@@
Wirtschaft
ves
jeden
nichts
Abstimmung
ß@@
mer@@
pe@@
importance
ni@@
Li@@
keinen
G
Ch@@
car@@
house
sollen
com@@
ihrem
society
and@@
ru@@
complete
gh@@
recht
strategy
Gemeinschaft
Haupt@@
she
setzen
cultural
ker
Lo@@
ment
greater
end@@
Rechte
handelt
ia
bu@@
weiterhin
hin@@
ep@@
sea
zusammen
sa@@
Grund@@
klar
zurück@@
training
environmental
kind
Ebene
betrifft
nach@@
Inter@@
Ort
ange@@
he@@
sei
statt
natural
along
ago
13
ig@@
weit
required
á@@
wer@@
La
principle
heart
step
bedeutet
Ad@@
findet
pages
wichtige
recent
sure
durch@@
EN
Bezug
ellen
€
würden
eb@@
breakfast
kon@@
bereich
nutzen
besten
solche
Rechts@@
under@@
meeting
Or@@
min@@
besser
deal
century
fall
führt
deshalb
schnell
Gesellschaft
wide
Her@@
war@@
ma
deutlich
clearly
address
K
ic@@
authorities
tion
2001
November
technical
Zugang
ability
aufgrund
gel@@
user
tern
men@@
ches
Dank
go@@
Von
gehört
Kosten
sub@@
achieve
solutions
erst
Russia
Richtung
ca
alten
nächsten
enough
plan
directly
past
up@@
10@@
ed@@
employment
hin
needed
pool
facilities
essential
lot
standard
bekannt
ty
serious
ran@@
car
IT
Markt
months
thing
feel
ise
nature
person
bring
developed
allerdings
av@@
history
Nähe
related
guests
Ansicht
60
risk
currently
Please
responsible
Aus
ging
restaurant
proposed
Umsetzung
longer
1@@
markets
Ent@@
events
eln
ft
ary
Menschenrechte
vo@@
April
central
visit
requirements
lange
live
ded
tre@@
interests
hei@@
bel@@
Lu@@
tige
N
ters
ms
Rück@@
comes
cht
parties
bar@@
From
near
Windows
internal
voll
works
comfortable
licher
Ziele
$
language
ina
beispielsweise
top
son
Bau@@
Vertrag
hoffe
night
please
eller
themselves
Verfahren
Verantwortung
Version
Car@@
gestellt
2002
ets
team
werde
regions
ff@@
young
Bedingungen
Gu@@
involved
efforts
Am
0
extremely
democracy
voted
‘
ell@@
mar@@
ver
changes
competition
Durch
total
GmbH
regulation
notwendig
ta
verwendet
Anwendung
strong
never
implementation
friendly
vielleicht
Interesse
sch
cases
Demokratie
keep
ell
kleinen
gemeinsamen
Ihrem
Vorschläge
ck
V
Haushalts@@
ziehen
held
force
four
Neu@@
Grundlage
Man
network
Reihe
Geschichte
gung
Daher
AN@@
freedom
Gra@@
peace
gesch@@
Herren
Gebiet
upon
17@@
20@@
Möglichkeiten
event
bleiben
erreicht
though
Tra@@
ad
Doch
wirtschaftlichen
situated
etc
democratic
pa@@
sprechen
France
file
regional
sozialen
prices
gegeben
ren@@
zeigt
..
care
either
könnten
negotiations
material
rates
ausge@@
space
Sicherheits@@
developing
Debatte
bed
Institutionen
created
ure
wenig
AG
Man@@
liches
consider
unique
true
education
dar
oft
looking
pay
17
music
eh@@
seen
everything
80
Tri@@
share
almost
states
500
Ri@@
Bi@@
big
request
tischen
thus
beach
tigen
tion@@
ling
verschiedene
vier
mu@@
funds
1.@@
Pi@@
Strategie
reform
success
improve
early
book
ner
spielen
är@@
verfügt
Bank
designed
ie@@
additional
Dis@@
parts
liegen
meet
ster@@
fundamental
climate
sion
road
ari@@
try
cost
à
dern
date
ative
foreign
according
effect
Auswirkungen
form@@
200
famous
bei@@
ermöglicht
ern@@
Damen
type
American
soon
Minuten
lu@@
besch@@
lei@@
tive
links
hard
card
s-@@
term
Dienstleistungen
mal
gemeinsame
weltweit
included
Qu@@
actually
send
Wirtschafts@@
unternehmen
helfen
Berichterstatter
idea
enen
Abkommen
hatten
gs
danken
receive
later
www.@@
French
lin@@
Park
Israel
Presidency
Su@@
act
test
understand
aten
ah@@
tragen
ER
living
tung
pl@@
bus
ven@@
lead
ER@@
Zu
turn
sc@@
accept
erforderlich
Paris
capital
tan@@
direct
program
tic
1999
Verhandlungen
Hinblick
takes
wegen
Mitglieder
Programme
appropriate
low
center
Wasser@@
outside
geb@@
workers
fe
mentioned
Tatsache
gesamten
mis@@
Regionen
users
bereit
Ber@@
tax
Geschäfts@@
investment
San
»
ass@@
features
ebenso
ways
mer
lan@@
cher
Ko@@
entwickelt
Zentrum
Außerdem
einzelnen
Gruppe
fragen
How
reach
ori@@
tet
IN@@
amount
table
Cor@@
run
procedure
Liste
leben
Schritt
hours
denke
wa@@
Nach@@
weiteren
doing
internationale
week
majority
ance
Y
gebracht
va
took
darum
Kolleginnen
í@@
16@@
ders
ard
ever
communication
chten
Ergebnis
Entscheidung
throughout
gleichen
By
ieren
lässt
active
hätte
AR@@
across
guarantee
jedem
konnte
Bereichen
significant
certainly
wor@@
traditional
Ho@@
ationen
EN@@
connection
ph@@
final
Änderungsanträge
legen
aware
Vereinigten
existing
Antwort
Platz
…
writing
-B@@
befinden
gel
perfect
19
Krise
Blick
sed
ing-@@
America
kt
Änderungsantrag
Erfolg
Turkey
Beziehungen
relations
Ta@@
board
Com@@
media
Bevölkerung
context
performance
concerns
gab
Sa@@
leading
gleichzeitig
geführt
gn@@
15@@
member
AT@@
br@@
original
stage
fahren
initiative
wichtigen
gemeinsam
customer
IS@@
ments
z.B.
Preis
weiß
knowledge
cu@@
My
zeigen
military
jede
cks
impact
ente
walk
Seit
add
body
So@@
ges@@
population
programmes
Bar
Rei@@
five
built
moment
wohl
game
&gt;
bekommen
ST@@
kleine
apply
Ausdruck
heißt
Per@@
Unser
professional
although
Abgeordneten
Geld
Pre@@
bleibt
rec@@
Ne@@
ben@@
Bu@@
Aufgabe
ents
Japan
21
2.@@
completely
tische
Verbindung
Türkei
tor
au
nothing
gern
Mit@@
established
Minister
reasons
ties
committee
=
code
includes
fo@@
bare
community
Zum
verbunden
zeit
Government
decisions
read
equipped
allows
Einsatz
Mal
remain
fe@@
concerning
ys
agreements
Mor@@
Since
basic
stra@@
Kontrolle
ender
meinen
AS@@
ast@@
style
baren
culture
Förderung
lichkeit
kl@@
Q@@
unseres
English
70
enthalten
London
iert
practice
gestimmt
choice
enn@@
jobs
Projekt
sense
eu@@
front
und@@
ana
Kar@@
Verordnung
partners
ry
Court
fer
tz@@
model
neu
out@@
Forschung
internet
des@@
party
Vi@@
Ru@@
tr@@
kan@@
Jahres
web
ats
holiday
For@@
22
files
values
Do@@
demand
Damit
received
Lösungen
IC@@
hand@@
simple
Wei@@
auszu@@
einge@@
develop
ity
ba@@
Information
package
applications
jedes
ums
face
integration
W
Let
il
Partner
els
equipment
stop
fest@@
potential
Erweiterung
August
objectives
ones
entire
Behörden
Bitte
II
ales
richtig
wichtigsten
Entschließung
regarding
move
gerne
don
cor@@
dar@@
ES
Iran
o-@@
Beitrag
function
Lisbon
below
quickly
IT@@
park
benefit
bit
Nutzung
rund
mehrere
gleich
Here
focus
fight
nice
aim
det
agricultural
12@@
concern
eg@@
Ausschuss
fin@@
East
successful
90
pp@@
fest
reports
hinsichtlich
image
zurück
er-@@
mp@@
objective
ganze
derzeit
cken
enthält
eigene
Russland
treatment
ven
check
ganzen
co
goods
euro
seems
South
ermöglichen
27
contains
return
einzu@@
AL@@
lose
kte
genommen
May
No@@
Landes
neben
Verbesserung
recently
wobei
governments
achieved
Vor
press
dy
Finally
hotels
ann@@
Au@@
ces
al-@@
tig
indeed
size
ks
Ausschusses
en-@@
levels
Text
Umwelt@@
mind
{
series
versch@@
«
guest
mean
coming
Ergebnisse
June
Verbraucher
mat@@
Du@@
beginning
fair
National
prevent
rest
huge
Angebot
än@@
weise
added
Central
gar
str@@
isches
job
ste@@
increased
hal@@
computer
ES@@
tungs@@
keyword
places
Gelegenheit
clean
Woche
völlig
Wort
lack
everyone
verfahren
id
ban@@
Design
answer
Schaffung
presented
verbessern
zusammen@@
Me@@
re-@@
RE@@
23
sites
Darüber
Verwendung
dialogue
anderer
enter
14@@
mm
Initiative
office
wirtschaftliche
Land@@
closed
cht@@
Some
floor
reviews
fördern
ier@@
consumers
note
Regierungen
Mitarbeiter
eri@@
lang
agreed
guten
entwickeln
shows
berg
großer
verwenden
ss@@
relevant
highly
higher
asked
anzu@@
Affairs
Mi@@
verfügen
balance
ship
E-@@
lage
PC
tur@@
land@@
direction
gehören
choose
sustainable
Ukraine
ub@@
dr@@
carried
ving
sis
enable
complex
ang
ändern
lines
soziale
Interessen
La@@
nuclear
Team
fünf
chte
bestehen
half
später
Bild
rich
falls
sing
Familie
whose
Notwendigkeit
amendment
gas
commitment
res@@
Welt@@
Wert
ps
considered
effects
Now
Therefore
nimmt
principles
sorgen
Zeitpunkt
suchen
Themen
shown
Server
Änderungen
inc@@
innovative
comp@@
travel
perhaps
Spiel@@
300
Frankreich
maßnahmen
ore
nie
13@@
meinem
zunächst
City
server
eng@@
col@@
latest
EL@@
Markt@@
Management
tatsächlich
materials
Barcelona
pres@@
scher
Tage
possibility
Erfahrung
H
Web@@
Hand@@
dra@@
setting
Of
matters
Organisation
Während
programm
ant@@
har@@
ano
EC@@
Gesundheit
ton
Kultur
tete
Auswahl
former
Nor@@
thanks
Person
fre@@
forms
sta@@
treffen
tiger
}
ro
Herzen
details
UN@@
enz@@
angenommen
He@@
ist@@
tieren
Umgebung
Dabei
opportunities
easily
ess
came
behind
Mai
video
ski
Anfang
previous
First
double
popular
net
Spain
accommodation
sto@@
weiter@@
increasing
status
actions
pressure
Fahr@@
Fach@@
fallen
reduce
schriftlich
0.@@
promote
AC@@
speak
aspects
stark
response
verstehen
ations@@
lediglich
atmosphere
search
hohen
reached
ak
anti@@
ser
bisher
ying
tim@@
partner
pf@@
prepared
ort
providing
tel@@
capacity
remains
—
Mitglied
ino
äußerst
Einführung
innen
Steuer@@
creation
Africa
joint
Kampf
Juni
gesamte
genden
safe
Article
Ba@@
ism
1.
sound
Anzahl
exchange
Meer
ies
ssen
Aktivitäten
billion
external
efficient
oil
submitted
je@@
Bel@@
produced
somit
wer
Umwelt
British
Am@@
Italy
Bei@@
bringt
Also
bank
Museum
the@@
commercial
limited
charge
bestimmte
tiert
Wachstum
Sprache
por@@
Wahl
summer
sts
gewährleisten
gemäß
tliche
industrial
Gäste
link
ation@@
supply
gten
ese
Prozess
gives
00@@
uses
Systems
versuchen
ful
met@@
lies
protect
Wasser
obwohl
Integration
decided
ve@@
stre@@
gesetzt
kten
funding
supported
voll@@
mann
ll@@
Produktion
emp@@
scheint
US-@@
priority
December
fordern
sur@@
P-@@
halte
cause
Hand
leave
Amsterdam
Lei@@
Convention
Hoch@@
follow
fu@@
bestimmten
property
Por@@
gre@@
Lebens@@
Raum
island
Zahl
Daten@@
Dinge
Preise
restaurants
Western
enlargement
independent
can@@
Kur@@
Kommissarin
stri@@
El@@
ler@@
Bekämpfung
ess@@
zahlreiche
Go@@
Fortschritte
tungen
we@@
Te@@
produce
enten
ther@@
civil
Insel
ade
gro@@
largest
Euro@@
pri@@
zweite
Natur
bad
35
organisation
To@@
similar
Industrie
CO@@
Erachtens
word
option
hohe
S-@@
systeme
consumer
leicht
structure
ence
erster
assistance
ili@@
ators
ausgestattet
bre@@
meines
gl@@
möglichkeiten
Jo@@
Funktion
instrument
zer@@
mobile
York
größten
einschließlich
heit
Spiel
hr@@
bau@@
aufge@@
Entwicklungs@@
steps
Gen@@
1998
creating
movement
comm@@
iz@@
Services
frei
lau@@
sel@@
außerdem
teile
apartment
ines
setzt
Bestimmungen
solchen
Erklärung
Einzel@@
platz
Position
pleased
Jahrhundert
March
our@@
January
lagen
Dezember
Web
Stelle
weisen
insgesamt
UN
variety
brought
rule
sive
dadurch
regulations
sagte
führung
construction
Ha@@
Sozial@@
General
airport
fl@@
j
source
len@@
einzige
credit
hoch@@
weder
Handel
Gar@@
Pa@@
mel@@
vergangenen
War@@
bri@@
mein
St.
af@@
conference
purpose
Pal@@
ok@@
October
Dialog
ourselves
tem
zweiten
written
Today
ktion
message
Nur
,000
activity
stability
van
Booking.com
Mehrheit
sm@@
ble
started
aufgenommen
verb@@
discussion
ground
became
Gi@@
instruments
instead
ó@@
kt@@
leider
zei@@
Gewalt
distance
Linux
Anforderungen
are@@
Entscheidungen
paid
kosten
Investitionen
Sal@@
film
Küche
Stunden
relation
Strand
distribution
study
Punkte
sieht
interesting
ären
Vorschriften
click
Kosovo
23@@
aler
genießen
section
mittel
ca.
Aufmerksamkeit
ß
allowed
geschlossen
März
Gefahr
sent
ev@@
document
Gästebewertungen
4.@@
Party
fishing
leisten
aufzu@@
giving
une
West@@
Energie
Projekte
ju@@
U
sei@@
tool
vol@@
agenda
Grenzen
Mal@@
ite
kre@@
Ste@@
Republic
bezüglich
pass
tell
legislative
statement
Macht
regards
Club
quiet
compromise
gar@@
bevor
с@@
payment
benefits
schließlich
Bereiche
base
concept
effort
lung
ness
Center
Development
procedures
Handels@@
During
werk
Villa
growing
konnten
DE
North
school
Freiheit
tors
violence
eingesetzt
damage
neuer
aktuellen
village
Folgen
gelten
weg
ou
wenige
bes@@
Many
contribution
Italian
historical
July
stell@@
operation
Chi@@
eigentlich
extra
self-@@
größte
require
log@@
CD
Wettbewerb
Regeln
item
Ni@@
drive
OS
fra@@
operating
Spanish
26
Landwirtschaft
zed
documents
Anfrage
wichtiger
abzu@@
digital
Frühstück
benötigen
integrated
gende
sports
provisions
Beschäftigung
tools
gleich@@
schaft
met
enti@@
Rights
download
durchgeführt
Meine
Firma
Bad
treten
lic@@
task
types
Reform
Oktober
zehn
build
28
teilen
criteria
kannst
Portugal
class
dung
Linie
Zur
happy
Standpunkt
box
Präsidenten
Bildung
Br@@
Höhe
europäischer
changed
Business
forces
Du
45
Diskussion
erwarten
1,@@
ll
wählen
mal@@
immediately
Januar
alternative
Nationen
Site
got
express
nor
assi@@
University
ris@@
Although
Ti@@
sions
Groß@@
star@@
genannten
ill@@
Sk@@
six
challenges
allein
ality
kurz
goes
official
zone
Heute
hinter
highest
Musik
draft
elements
apartments
fa@@
getan
equal
era
late
Your
IS
yer
chen@@
erungs@@
Gemeinschafts@@
eher
ihres
gr@@
Centre
San@@
employees
West
parking
tro@@
Berichts
Si@@
na
angesichts
sofort
app@@
transparency
bau
helpful
avoid
Furthermore
ik
round
Gründen
Ju@@
sor@@
Fehler
Flug@@
Op@@
Transparenz
friends
Wel@@
rise
Sache
reading
train
Sinne
öffentliche
bra@@
Personal
Ger@@
analysis
erneut
yp@@
daily
alte
Bemühungen
nahe
zwei@@
lower
processes
tel
applied
Öffentlichkeit
begrüße
Ser@@
offering
Ansatz
pr@@
numerous
bl@@
tsch@@
1997
reality
finally
consequences
ga
elections
Luft@@
bathroom
bel
az@@
Schlusselwortern
Präsidentschaft
Auffassung
Ben@@
Ra@@
eben
Gr@@
trans@@
historic
RO@@
geworden
review
ör@@
poverty
Besch@@
requires
Bilder
Flughafen
za
gefunden
B.
speed
5.@@
Wi@@
talk
conflict
MP@@
See
beitragen
stellung
Kraft
tt@@
vel@@
king
efficiency
labour
sting
lives
beyond
star
morgen
offered
lernen
ismus
AD@@
Urlaub
solidarity
hält
Kinder@@
son@@
ya
sport
entsprechenden
diejenigen
Restaurants
modified
colleagues
Verkehrs@@
sum@@
Fällen
death
Ober@@
saying
Room
tlich
freien
persons
verhindern
expect
@
ini
Do
bur@@
medi@@
Juli
Dateien
ini@@
volle
wine
Bal@@
poor
gender
behandelt
ideas
tlichen
Druck
paar
pu@@
Natürlich
Monaten
Kor@@
fine
fol@@
implemented
wanted
minimum
Tor@@
useful
Tur@@
sted
bs
practical
published
ständig
draw
hätten
Even
clients
con
phone
Mediterranean
cs
shopping
erfolgt
ron@@
ßen
vers@@
stimmen
dan@@
terrorism
establish
geh@@
congratulate
illegal
sektor
entsprechend
Tre@@
starting
Tagen
crucial
fil@@
Atmosphäre
learn
Debian
Bürgern
stands
tomorrow
news
WTO
carry
Basis
kennen
secure
berücksichtigt
weeks
sales
richtige
ment@@
Behandlung
technologies
Hotel@@
­
Tagesordnung
OR@@
comprehensive
Fi@@
edi@@
vergessen
Har@@
sal@@
tik@@
Gesundheits@@
wieder@@
Austria
ce@@
transfer
Tat
mm@@
player
Sport@@
Energie@@
ide@@
lesen
Staats@@
While
cal
warum
Nr.
Den
Dar@@
anderem
Vo@@
besondere
organisations
rä@@
Preis@@
hoch
technischen
Mittel@@
prä@@
Selbst@@
minute
Min@@
reduction
options
acc@@
modernen
ably
monitoring
folgen
sometimes
port
maximum
ement
versucht
machine
LE@@
frage
Microsoft
deutschen
A-@@
pan@@
lin
head
ke@@
3.@@
Bürgerinnen
win@@
Bundes@@
oben
amp@@
Unter
vertreten
reference
leaders
morning
zahlen
hold
ff
Änderung
denken
plant
Bri@@
Italien
Stadt@@
überhaupt
probably
worldwide
voting
inn@@
players
caused
anything
Lissabon
tn@@
Lassen
Fu@@
ord@@
Amendment
schließen
Le
lie@@
begin
games
Republik
challenge
alone
Is
Chinese
verantwortlich
month
historischen
street
Viele
Gro@@
flo@@
Sicht
ut
Beginn
anders
Ban@@
beste
email
interested
pen@@
gesehen
Mag@@
raum
ga@@
Forschungs@@
Aufenthalt
gew@@
erklärt
kti@@
Ressourcen
Dr.
annual
cities
Spanien
häufig
sches
erfolgreich
plans
Fest@@
lösen
reichen
Vergangenheit
neues
Finanzierung
ür@@
200@@
barkeit
ready
cut
Rechtsvorschriften
long-term
gewesen
chance
vollständig
Konferenz
ages
wal@@
languages
zahlreichen
Technologie
RA@@
erwartet
ktionen
I-@@
mountain
stelle
Wochen
Datei
thought
waste
bin@@
zer
sa
jeweiligen
welches
Kultur@@
child
erfüllen
Zweitens
farmers
banks
Airport
#
2-@@
Wahl@@
äre
IM@@
Fe@@
ette
Gruppen
wahrscheinlich
Fre@@
erungen
Erfahrungen
unten
braucht
leg@@
release
cur@@
ously
1996
Thank
Moreover
ET@@
lost
1-@@
Produkt@@
Fund
worked
ungsp@@
selection
´
Ku@@
ien
garden
Schritte
extent
EC
ture
kam
geschaffen
FR
jo@@
methods
on-@@
ich@@
ics
una
Vertrauen
scientific
Inhalt
zumindest
relating
Conference
ada
accession
businesses
stets
Werte
Lin@@
accordance
endlich
green
genutzt
advantage
ss
schützen
method
mention
images
walking
ier
verpflichtet
sectors
genug
ulation
Hei@@
comfort
Cas@@
strategic
tor@@
Natur@@
ack@@
Aspekte
cre@@
teten
außerhalb
Herausforderungen
Kunst@@
ai@@
31
Wein@@
sol@@
z.
powers
folgt
fields
Mat@@
gend
despite
danke
lat@@
processing
gan@@
Directive
san@@
Not
Berg@@
erter
Sti@@
Einige
influence
hol@@
Allerdings
fahr@@
legt
5-@@
32
heutigen
bet@@
hören
tics
gte
fish
Russian
seines
Angelegenheit
Dazu
privaten
US@@
abge@@
letzte
menu
Kunden@@
visitors
raised
loss
neu@@
Wohn@@
Benutzer
innovation
Ireland
amerikanischen
persönlichen
motion
alt
fac@@
Security
cally
25@@
mes
del@@
Only
flexible
vollen
ology
separate
Im@@
wert
Gebäude
Mu@@
hen
doubt
erlaubt
wing
senden
Pri@@
Public
trying
è@@
Parteien
bessere
Schwierigkeiten
trotz
accepted
Obwohl
implement
Berichterstatterin
ir
absolutely
Google
gest@@
join
od@@
Falls
sechs
ausschließlich
regime
75
Star
zation
Staat
Spieler
post@@
Sonder@@
map
Col@@
bilden
™
demands
justice
ole
Neben
Ap@@
Bur@@
folgenden
°
deten
Arbeitnehmer
Gesamt@@
scope
Hinsicht
Ur@@
alität
Secondly
overall
moderne
Dann
Gegen@@
UK
Wer
critical
borders
schwer
affected
cra@@
²
negative
Milliarden
placed
enz
tal@@
Ihres
cover
demokratischen
Einrichtung
Folge
Bre@@
More
verkehr
Praxis
oren
Krieg
ns
swimming
contract
Vertreter
yourself
Prozent
länder
ast
übernehmen
entscheiden
intended
cli@@
gekommen
Free
Ka@@
laufen
ls
e-mail
zudem
getting
Its
usually
gang
running
bitten
wo@@
Denn
automatisch
Ac@@
Wunsch
SP@@
EM@@
Angelegenheiten
Arbeitsplätze
и@@
beide
uri@@
Grand
erinnern
Computer
richten
anti-@@
ki@@
heard
Opfer
Instrument
target
calls
love
suitable
Indeed
30@@
Aufgaben
bewusst
Afghanistan
generation
aff@@
reforms
rel@@
Red
Station
begrüßen
Solidarität
g-@@
deine
adopt
kaum
Bus@@
says
warm
currency
rich@@
Privat@@
relationship
SA@@
Dra@@
gebiet
nu@@
Bra@@
gabe
sierung
in-@@
ear@@
ierung
mainly
Zusammen@@
evening
tru@@
allgemeinen
Frieden
usw.
administration
freie
Ö@@
nt
initiatives
committed
Z
erkennen
namely
gelegen
Systeme
increasingly
3-@@
Organisationen
ün@@
Armut
mor@@
installation
opening
President-in-Office
representatives
om
tour
freuen
vital
terrace
29
maintain
Annahme
expressed
El
Pan@@
traffic
planning
Leute
talking
normal
etc.
tw@@
stand@@
ität
border
Wieder@@
proper
union
6.@@
ures
bald
Nun
Erstens
Cre@@
mission
produ@@
born
structural
tation
ical
sha@@
darstellt
Verfassung
endes
größere
stress
benutzt
improved
students
qui@@
teil
vorgeschlagen
eindeutig
haus
families
Karte
approved
serve
Agenda
ek
Sitzung
goal
rechts
Anti@@
signed
sage
correct
automatically
Sen@@
elt
Verpflichtungen
ws
comments
nationale
zusätzliche
Hause
ado
uni@@
industrie
Reise@@
competitive
powerful
onen
CH@@
zes
People
Außen@@
Anstrengungen
Falle
cker
dri@@
confidence
Online-@@
tourist
Win@@
Funktionen
DVD
zeiten
ah
Costa
Idee
Sub@@
Hu@@
infrastructure
plus
Iraq
reduced
bil@@
unbedingt
Da@@
globalen
rechte
India
decide
tionen
Hel@@
Tran@@
Ca@@
fan@@
beginnen
delivery
feature
Protokoll
entspricht
erenden
unemployment
überzeugt
protected
Fer@@
Kriterien
Enterprise
stärker
super@@
fun@@
photo
collection
Partei
ach
lt
administrative
ße
supports
cohesion
screen
Zustimmung
stu@@
Wahlen
400
4-@@
gesprochen
aktuelle
š@@
began
offen
ren
stable
format
extensive
covered
mindestens
served
Informations@@
Schul@@
schaften
emissions
Produktions@@
langen
circumstances
rein@@
conclusion
а@@
sicherheit
gleiche
eter
anischen
Ist
Wann
founded
Nations
well-@@
sources
Vereinbarung
mark
Ä@@
Verwaltung
tions@@
ca@@
lich@@
sign
contribute
01
worth
Osten
Reformen
rei@@
functions
ational
pleasant
Office
genannt
AM@@
priorities
vorgelegt
iger
gs@@
zug
electronic
likely
unterschiedlichen
selbstverständlich
financing
introduced
gezeigt
UR@@
nor@@
Terrorismus
defined
EL
prozess
Vorteile
min
Gipfel
plants
ban
Just
mittel@@
else
larger
effectively
att@@
Ak@@
cal@@
Anerkennung
Each
prüfen
white
encourage
speaking
Kre@@
ised
glauben
stat@@
Fra@@
ral
understanding
gerecht
Inhalte
Greece
ensuring
dringend
DI@@
exist
Produkten
ars
cia
erwähnt
crime
isch@@
Qualitäts@@
ko
mehreren
Code
Technologien
laws
ase
risks
tabled
verfügbar
schutz
Stabilität
150
managed
wünschen
track
klicken
fresh
ame
Haushalt
positions
ved
entsprechende
wider@@
Homepage
Kern@@
Binnenmarkt
whom
listed
Straße
Mc@@
Cal@@
opened
Besuch
PL
ik@@
Asia
ue
Standard
Swiss
War
victims
erk@@
ple@@
detailed
wonderful
alisierung
At@@
played
50@@
ice
tä@@
wesentlich
Zudem
ha
Sektor
Produkt
participation
Ausschuß
Why
Kal@@
ara
chs
Rec@@
Test@@
....
2020
appear
E-Mail
stated
Val@@
cul@@
berücksichtigen
ti
erfahren
fort@@
agriculture
programs
D-@@
uli@@
hoffen
optim@@
Prä@@
Mark@@
testen
IL@@
Schließlich
record
multi@@
Über
sam@@
wrong
animals
las
Plan@@
burg
Sommer
Comp@@
hinweisen
camera
nachdem
bal@@
discuss
arbeitet
erende
sitting
Volk
paper
kommenden
exactly
Frankfurt
möglicherweise
work@@
debt
shi@@
transparent
bestimmt
sse
selected
1995
manner
De
Zunächst
limit
specifically
Then
siert
ki
becoming
won
beds
akzeptieren
о@@
Durchführung
regular
aimed
markt
si
Mitteilung
partnership
income
door
Nord@@
purposes
ME@@
Sh@@
Medi@@
Tier@@
Plan
zeit@@
linked
benutzen
Bor@@
metres
aktiv
ley
back@@
February
expected
vision
technische
erzielt
wants
ON@@
votes
rü@@
represents
developments
ang@@
és
discussed
sicherzustellen
rural
referred
Chance
bestehenden
fri@@
fahrt
sec@@
Anwendungen
Sol@@
le-@@
besonderen
fle@@
id@@
measure
Augen
zentrum
assessment
Sea
went
tic@@
poli@@
Medien
las@@
gelegt
cy@@
getroffen
Nicht
discussions
rop@@
dienen
laden
far@@
Fin@@
Unterkategorien
ato
scale
Suche
marketing
han@@
euch
geändert
Lan@@
precisely
fying
warten
igen
sub-categories
erg@@
hor@@
thousands
siehe
Einrichtungen
entry
trägt
bedarf
acht
DA@@
teil@@
fellow
Apartments
police
Rooms
spacious
Ski@@
inside
shop
cas@@
unver@@
bro@@
möglichen
sufficient
essen
co-@@
Nutzen
umgesetzt
ig
spend
Wettbewerbsfähigkeit
ration
Kan@@
zuletzt
medical
person@@
tures
enterprises
Haltung
otherwise
erfüllt
tisch
ID@@
ish
introduction
stoffe
Standards
Bild@@
LA@@
wenden
earlier
ft@@
notwendigen
imp@@
arbeit
finanziellen
operations
Kontakt
kitchen
client
Kunst
Social
Cam@@
reich@@
gener@@
followed
Middle
playing
Agreement
dient
liber@@
houses
budgetary
exclusive
Em@@
pol@@
lig
Zeichen
Einfluss
stimme
facing
connected
closely
elegant
vari@@
alism
Monate
tional
Bas@@
Board
achten
Ausbildung
winter
anderes
lä@@
voller
Vol@@
schreiben
represent
á
rent
eingerichtet
ots
jene
oll@@
stone
losen
NATO
Tro@@
path
considerable
stei@@
festgelegt
Char@@
ON
strengthen
select
jederzeit
atic
elles
buildings
ergreifen
Met@@
Most
vermeiden
Best
Switzerland
ner@@
hour
Christian
Gal@@
Super@@
ften
happen
24@@
cher@@
fla@@
beziehen
pat@@
Green
She
lö@@
Klein@@
save
institutional
zen@@
äu@@
blo@@
spar@@
degree
Kindern
Anspruch
shops
supporting
darunter
Pra@@
John
guidelines
shower
geeignet
Film
Schutz@@
lichem
rat@@
season
verfolgen
ingly
pe
Vielfalt
Bro@@
Meter
so-called
discrimination
C-@@
Human
stärken
Menschenrechts@@
Wal@@
politischer
dlich
pra@@
jeweils
purchase
Innovation
immigration
sion@@
improving
Gesch@@
remember
sionen
Zei@@
networks
Menge
ica
stadt
telephone
nisse
High
außer
7.@@
components
Ü@@
ark@@
daten
acts
handeln
angezeigt
Roma
erhöhen
wel@@
Video
Star@@
ey
hear
speech
sicherlich
buy
vern@@
Policy
Konzept
übernachten
erzielen
His
cards
Schweiz
experts
Pu@@
Webseite
http
broad
Czech
welcher
fun
average
entschieden
ckt
Leistungen
stellte
teilweise
Vertrags
cuisine
unbe@@
,@@
&apos;ll
aren
gem
entweder
funktioniert
fs
Spa
e.g.
ologie
gelangen
thinking
Familien
besuchen
fällt
ass
typical
zo@@
stock
Stand
tourism
spielt
suggest
schi@@
ire
Installation
char@@
Fischerei@@
wären
fung
verbessert
spricht
gave
pul@@
Economic
seem
Familien@@
trust
2011
properly
Sprachen
digen
reception
Name
presence
items
rit@@
wood
mü@@
Unfortunately
entirely
Because
IP
Instrumente
Februar
Jetzt
Abschließend
inen
relate
element
Pol@@
ction
Research
Wege
klare
werte
sagt
provision
lungen
erleben
Warum
Stimme
Pe@@
ID
competitiveness
spirit
core
Verwaltungs@@
richtigen
spor@@
fied
ine@@
Tätigkeit
Veränderungen
rat
Kenntnis
Leider
Garten
ella
generally
Vereinten
uren
gebaut
ek@@
ef@@
rin@@
Berichte
dé@@
Arbeiten
Poland
spon@@
com
stes
difference
hab@@
refer
Click
Abschluss
kur@@
oo@@
presidency
Pas@@
lands
Forderung
ona
erstellt
bodies
bes
Fo@@
Modell
summit
display
hervor@@
feld
Initiativen
machines
dro@@
IN
tradition
actual
zing
Brussels
speziell
Forum
reasonable
ausdrücklich
Mitte
ently
authority
ian
che@@
Bürger@@
prior
ged
vorgesehen
Vergleich
wollte
domestic
advanced
coordination
politics
informed
Zeiten
Hor@@
fel@@
dealing
dagegen
schutz@@
Plat@@
betonen
Ob@@
Vielen
PT
Adresse
informieren
win
kom@@
meetings
district
character
hot
Street
Regelung
Teile
Engagement
Once
Abgeordnete
difficulties
cap@@
95
Irak
vehicles
ay
plan@@
Ausgaben
parliamentary
animal
Internet@@
Besucher
condition
Post@@
les@@
Great
coffee
experienced
flexibility
appears
tt
My@@
täglich
durchaus
dete
bedingungen
möglichst
gewinnen
numbers
peaceful
applies
Musik@@
ze@@
zentrale
beschlossen
Transport
told
Herausforderung
estate
All@@
fisheries
becomes
cl@@
Dienste
vorhanden
sets
consideration
permanent
amen
Mitgliedstaat
spe@@
sem@@
lig@@
wenigen
spiel@@
ants
Angaben
According
Mer@@
Gel@@
lokalen
resort
ye
sign@@
haft
Dec@@
rus@@
Zeit@@
Breakfast
nte
Des@@
ath
Werk@@
mark@@
Ziel@@
dly
gefordert
origin
ory
Golf
tere
Klicken
Wer@@
99
heiten
Zeitraum
ty@@
Not@@
angeboten
Komfort
Pap@@
Währung
Indi@@
break
dank
Ph@@
Durch@@
Air
benötigt
Can@@
courses
Mis@@
konkrete
Gas@@
sieren
Druck@@
stein
wahr@@
monetary
--
net@@
Großbritannien
ingen
ink
ware
election
stic
easier
Hauses
freue
establishment
hu@@
veröffentlicht
Multi@@
36
lie
picture
economies
trip
ours
Jahrhunderts
God
Dem@@
finanzielle
ash@@
starke
database
gruppe
Mio.
pla@@
Net@@
analy@@
high-@@
threat
gem@@
ungs-
fixed
Gebieten
structures
führenden
combat
dliche
art@@
aspect
ige
Nieder@@
konzentrieren
practices
ordnung
führte
Wissen
gewährleistet
leader
AB@@
bor@@
aims
ched
forget
geln
kulturellen
gene
weight
ination
Status
Dennoch
ships
34
tätig
erfolgen
attempt
Auto
models
darstellen
Terrasse
nächste
Comm@@
Tour
Madrid
continued
arten
entstehen
ker@@
erscheint
val@@
Beitritt
south
län@@
spent
erstellen
sides
stehenden
failure
sou@@
tät
Herstellung
Programms
Nachfolgend
combination
flow
myself
satz
Kingdom
AG@@
club
Online
buffet
dre@@
Worte
erklären
propose
exp@@
translation
seriously
med
glich
fund
Del@@
geschrieben
tage
Mas@@
dennoch
Sur@@
ery
Einigung
ct
Association
Rede
Cap@@
syn@@
sters
unabhängig
Antrag
Zweifel
cking
schönen
associated
detail
post
е@@
steigen
sischen
Kirche
ater
vis@@
attractive
dec@@
48
air@@
betrachtet
Santa
oni@@
gruppen
nis@@
Zweck
ited
Res@@
Klima@@
promoting
schwierig
anyone
Spezi@@
ancient
himself
Sie@@
ahead
relax
unterschiedliche
Forderungen
off@@
д@@
Kno@@
cke
Pakistan
welt
gegründet
differences
studies
Open
sta
reducing
reservation
Fran@@
availability
finance
brand
fähigkeit
web@@
Belarus
anlagen
ester
Sehr
announced
Kom@@
eingehen
grounds
IF@@
Analyse
beaches
Geld@@
gain
changing
ehr@@
hon@@
reicht
umfasst
pre-@@
Universität
impossible
Regel
carefully
Österreich
sun@@
phase
Einhaltung
Mac@@
released
inform@@
Wor@@
Liefer@@
voice
gestalten
absolut
humanitarian
balanced
Stellungnahme
museum
clo@@
98
Fl@@
Mess@@
Aufnahme
one-@@
asi@@
geschehen
Ã
booking
ziert
shared
2.
sho@@
charged
diskutieren
Firstly
Stra@@
Kl@@
uner@@
consumption
session
dangerous
cars
heraus@@
opposition
ring
Dollar
Sehenswürdigkeiten
Griechenland
immediate
kaufen
enst@@
nahme
einiger
names
Uni@@
producers
Irish
geleistet
happened
Private
dic@@
ists
defence
agencies
learning
hands
Texte
architecture
statements
duty
books
liebe
race
EADS
As@@
concrete
implementing
fire
keeping
Fonds
fore@@
band
läuft
Hal@@
schul@@
Tr@@
trading
harmon@@
gers
-F@@
exhibition
ely
Gleichzeitig
wall
Abend
Trade
Achtung
England
Stellen
regi@@
regionalen
iti@@
rück@@
Ki@@
halt
zimmer
istischen
ertes
Kommunikation
Health
river
Sil@@
arrival
inform
advance
folgende
eck@@
pictures
lets
truly
respond
Angesichts
Vielzahl
instance
Guest
lia
amm@@
article
de-@@
raise
MA@@
button
introduce
criminal
Due
Prime
Sorge
ée
profitieren
ländern
evidence
described
Hersteller
Entwicklungen
Every
Fuß
Cro@@
recommend
Trans@@
don@@
Download
verfolgt
bit@@
Paket
Hintergrund
skills
ning
meters
Aspekt
Sport
improvement
garantiert
überprüfen
600
37
Prioritäten
cy
registered
Dokument
tten
ising
Europeans
Links
ick
relaxing
Voll@@
elected
Arten
recognition
guarantees
zy@@
Casino
calling
passed
ISO
bas@@
port@@
feststellen
Polen
genuine
bt
standing
spending
т@@
tik
possibilities
einander
continues
nearby
chi@@
verlassen
werke
exc@@
Arbeitslosigkeit
Gei@@
ei
sale
System@@
Very
Afrika
Rechnung
у@@
reliable
television
installed
membership
wishes
seite
kosten@@
CA@@
Rot@@
Ja
sort
weiterer
pal@@
Gast@@
unacceptable
combined
devices
Partnerschaft
Stil
persönlich
gef@@
firm
Mann
packages
и
hom@@
Rad@@
gutes
sichern
istische
color
campaign
Stärkung
ack
figures
bauen
dor@@
adoption
empfehlen
Foundation
felt
miteinander
religious
1994
Seine
seek
fiscal
completed
reg@@
Nacht
übrigen
ai
33
enables
bezeichnet
allowing
cat@@
unless
orders
territory
ausschuss
black
greatest
zeichnet
strongly
Indien
African
kept
insurance
Moment
gegenwärtig
sensitive
Kat@@
gent@@
participate
tasks
Deutsche
Gesetz
IR@@
gkeit
angesprochen
st-@@
tly
III
Leistung
Betrieb
sli@@
Grenz@@
Lesung
surrounding
Bedürfnisse
greifen
eingeführt
k-@@
ante
frei@@
•
aci@@
obtain
chan@@
Problemen
2,@@
manage
französischen
Zwei@@
Ideen
Manager
Formen
gegenwärtigen
Beschreibung
zeichen
ander@@
contain
cho@@
hingewiesen
unfortunately
Justice
erhält
Tradition
bars
zz@@
Titel
court
closer
überall
Gemeinsamen
Irland
tend
zufrieden
groß
flu@@
Aussch@@
definition
tiges
fear
anten
positiv
surface
fordert
Another
demokratische
beginnt
attractions
cro@@
ering
middle
ological
Barroso
Banken
absolute
desire
mag
guide
9.@@
geschützt
ken@@
Sinn
0-@@
Player
komplett
Elemente
coast
einsetzen
Last
Richtlinien
OL@@
tom@@
dad
danach
dedicated
Open@@
Priorität
compared
dy@@
TR@@
unterstütze
Such
werk@@
etz@@
alist
platform
Agrar@@
sun
Überwachung
window
Hamburg
großes
w-@@
beauty
Dor@@
signal
to-@@
leistungs@@
piece
listen
We@@
wagen
tens
Pat@@
Ter@@
fälle
lige
800
aufmerksam
keinerlei
Fisch@@
umfassende
indi@@
Federal
38
Bio@@
Vienna
vo
Jeder
Turkish
ausreichend
einfache
lo
kers
End@@
interface
bear
wasser@@
cle@@
Regelungen
forced
Geschäftsordnung
erforderlichen
corporate
mehr@@
punkt
pun@@
marked
Hol@@
kes
route
enormous
claims
besitzt
Fortschritt
Meiner
größeren
gezogen
Bewertung
Anteil
s.@@
Can
cm
sämtliche
failed
spezielle
Verhältnis
bestätigt
biggest
beteiligt
ate@@
Technik
Märkte
gri@@
Kritik
ön@@
Ei@@
vorliegenden
Geb@@
dat@@
individuals
AL
an-@@
export
ands
square
perspective
publi@@
haften
accessible
länger
Größe
storage
entitled
comment
assen
09
luxury
Eastern
moving
55
science
sonst
licherweise
ically
onto
tests
extended
Hin@@
Entwurf
Poli@@
ths
Stu@@
holidays
Greek
National@@
exercise
Home
Michael
ins@@
install
totally
device
Prinzip
story
wind
Inn
Hi@@
trag@@
nennen
Nevertheless
write
convinced
ay@@
tal
rufen
Beschäftigungs@@
railway
schöne
Brüssel
rau@@
ined
Innen@@
wunder@@
mittels
Democrats
val
iel@@
vier@@
Verpflichtung
Ost@@
straße
urgent
hel@@
institution
internationaler
ends
Mil@@
memory
kostenlos
Yet
sation
č@@
fall@@
advertising
verbundenen
nten
Syn@@
d.
hof
hergestellt
dem@@
offensichtlich
bul@@
mail
gelöst
host
garantieren
Globalisierung
factors
wil@@
ständigen
cent@@
ssi@@
tou@@
discover
Agentur
Maße
controls
church
vit@@
Haup@@
Unternehmens@@
flight
starken
ward
engine
Mitteln
advice
drawn
organization
äl@@
Worten
Treffen
expensive
ath@@
bath
ances
sel
Bush
1990
alismus
amb@@
führ@@
Betriebs@@
Far@@
Netherlands
tz
Institute
initial
kraft
Fotos
vers
Lake
ka@@
bekannten
08
payments
Austrian
karte
Kraft@@
disease
seh@@
organised
chosen
stattfinden
granted
dienst
Unterkunft
bahn
weapons
Altstadt
nation
lar@@
Kol@@
zusätzlich
unable
beinhaltet
Gründe
ams
Atom@@
fern
Studio
reisen
ener
schlagen
Company
Motor@@
tig@@
Men@@
establishing
Verkehr
Ir@@
Monat
limits
stan@@
outcome
ero@@
ersch@@
ligen
onn@@
oh@@
mögliche
übertragen
Festival
contrary
Umfang
28@@
deutsche
zählen
&apos;re
perfectly
linie
Kenn@@
Han@@
attack
zeu@@
wirken
Shi@@
Wa@@
update
р@@
Tal@@
6-@@
mas@@
conclusions
print
Resort
ane
Niveau
wesentlichen
Erklärungen
tar@@
adi@@
saw
Control
sell
solcher
tried
mountains
massive
posi@@
Lam@@
7-@@
zw@@
britischen
zufolge
rechten
Beteiligung
Pen@@
ot
Palace
neither
betrachten
ku@@
fit
rightly
OT@@
Generation
furnished
ambitious
Thus
commitments
verloren
water@@
zung
ov@@
Gott
Are
tical
zuvor
olo@@
ierte
Foreign
valid
Volks@@
lag
Gegensatz
ining
finde
vehicle
Risiken
background
Patienten
existence
eigen@@
entsprechen
berei@@
Reise
successfully
minister
Politiker
sat@@
relativ
fic@@
ierten
agency
convenient
maintenance
Sta@@
Europäer
Note
artists
Entschließungsantrag
ular
äch@@
gelungen
komm@@
Schlüssel@@
Option
Flexibilität
register
asylum
speziellen
Methode
pos@@
Data
h.
stru@@
Bildungs@@
ust
Kompromiss
Gre@@
ther
honourable
claim
8.@@
approximately
unto
Palestinian
Eindruck
Mitgliedern
Aktionen
ata
remind
fach@@
candidate
Ereignisse
mei@@
para
wider
older
gehalten
ol
Mel@@
ç@@
sy@@
tin
07
Aussicht
nation@@
Sprach@@
gegangen
Weitere
achieving
TH@@
asking
Absatz
rechtlichen
Beim
constantly
PHP
yst@@
abgeschlossen
Latin
cou@@
surrounded
kul@@
Peter
lungs@@
ett@@
geöffnet
obviously
ía
jüngsten
deliver
targets
monitor
Aufbau
pas@@
Nachdem
intervention
O-@@
lichkeiten
manchmal
m2
continuing
lake
produktion
utili@@
guter
daraus
Bis
unit
schafts@@
stoff
nom@@
goals
expression
mäßig
x-@@
category
Located
Wirkung
paragraph
chs@@
dungen
Sor@@
down@@
Air@@
foot
Begriff
Verständnis
Innen
Empfehlungen
independence
informiert
touch
IG@@
erhöht
xi@@
promotion
reden
Erde
colleague
outstanding
nationaler
stal@@
stations
Projekt@@
alisation
fort
Gebiete
Card
wn
nung
Hon@@
loc@@
contents
Öl@@
в@@
hauptsächlich
Na@@
title
aircraft
laid
Dan@@
gets
Constitution
yl@@
Haus@@
Eigen@@
rep@@
Bet@@
ch-@@
fen@@
Realität
deep
erfordert
wh@@
Lie@@
someone
19.
öl@@
operate
suite
bildung
fte
spiel
Versch@@
Anlagen
Meeres@@
ideale
Start
Botschaft
ischem
photos
dia
obligations
Q
verk@@
vous
Phase
factor
advantages
Obama
0,@@
origin@@
Eing@@
ching
dom@@
Mand@@
Media
north
ri
Zahlungs@@
staatlichen
yesterday
physical
Hoffnung
SI@@
store
rech@@
Risiko
Nutzer
beachten
Those
Farb@@
Führung
contained
planned
Zi@@
SE@@
Regulation
м@@
fühlen
0er
Tu@@
fication
genen
intensive
mobili@@
te-@@
binding
boo@@
Fol@@
ord
emb@@
counter@@
qualified
obvious
Sar@@
dge
berühmten
ink@@
damals
tsp@@
Inseln
looks
recommendations
öh@@
waiting
ari
1992
decades
wichtigste
Mus@@
mass
Grundsatz
PR@@
participants
Doppel@@
equality
nearly
allgemeine
Market
Agency
Tages@@
bringing
hafte
Teilen
denk@@
sobald
capable
geschieht
Vom
ks@@
situations
Dom@@
ports
Off@@
ee
governance
Both
expenditure
recovery
fal@@
gol@@
oral
kar@@
consists
testing
globale
Rel@@
staaten
Rome
lang@@
communities
führer
putting
Paul
tab@@
jungen
einzigen
setzung
pointed
seeking
landscape
Winter@@
hängt
merely
species
hilfe
regelmäßig
legung
65
dimension
Beach
ECU
stoff@@
manufacturing
Süd@@
Hinweis
sions@@
plat@@
wirtschaft
Einkaufs@@
Firmen
Grunde
prevention
smaller
fonds
aufen
servi@@
MS
Bedarf
satellite
leads
trifft
einverstanden
Ren@@
е
festgestellt
nachhaltige
fy
Fraktionen
stor@@
Beihilfen
persönliche
Hauptstadt
AS
Voraussetzungen
dynamic
н@@
read@@
trä@@
Energy
substantial
Vorteil
Hälfte
Gegenteil
fi
Other
mechanism
medium-sized
Ebenso
Square
eli@@
Dimension
Is@@
disposal
sicht
Korea
sprache
registration
i.e.
Pro
soft
consistent
,00
liste
High@@
politisch
physi@@
zugleich
turned
Ham@@
tag
mode
vorgeschlagenen
Welche
bewegen
Gri@@
etten
ré@@
entgegen@@
betroffen
Energi@@
Städte
Bestandteil
jährlich
64
contemporary
Summit
eck
Wettbewerbs@@
dos
Regi@@
fron@@
ge-@@
Any
guaranteed
browser
acceptable
causes
named
echte
Infrastruktur
extend
Out@@
anbieten
Vertrags@@
arms
kor@@
rapid
Veranstaltungen
meaning
glass
Prüfung
Auto@@
Global
spezi@@
el-@@
Ul@@
driving
schneller
Fa@@
brings
Teil@@
Landschaft
Royal
Klimaanlage
ables
praktisch
wir@@
spa
versions
traditionellen
aries
serves
compliance
wodurch
determined
technological
Internationalen
alised
examples
flü@@
Holz@@
u.
stabili@@
Rules
Farben
tte
Ruhe
Ausland
42
fand
Winter
resulting
spread
.de
betroffenen
regeln
Angebote
Rau@@
beschäftigt
minim@@
my@@
voran@@
treated
herzlich
.00
Thanks
Sweden
by@@
Zahlen
sia
wn@@
Time
primary
erin
ately
hau@@
seven
yn@@
golf
The@@
na@@
conclude
Kontroll@@
Island
ola
mut@@
woh@@
Details
object
van@@
enter@@
vorschlagen
Buch
Bon@@
Dienst
gewählt
Unabhängigkeit
Environment
bers
atische
optimal
Zimmern
spaces
pleasure
adequate
wait
Gesetzgebung
block
Erhöhung
liability
früher
stellungen
EU@@
attacks
patients
fuel
Struktur
Aufgrund
Nu@@
explain
addressed
Martin
05
forest
JavaScript
temp@@
vollkommen
Trotz
stoffen
welchen
weiteres
begann
responsibilities
OS@@
Material
gesellschaft
Stat@@
kürzlich
nations
run@@
kun@@
junge
Tex@@
entwicklung
copy
radio
96
industries
strengthening
association
Format
ous@@
besseren
THE
strategie
diversity
3.
extreme
Sonnen@@
Überprüfung
bot@@
asse
Charakter
zurückzu@@
multi-@@
nis
fällen
Alliance
Königreich
ming
einerseits
bedroom
alo@@
zählt
schools
Rom@@
diskutiert
talks
cer@@
Ratspräsident
Bus
identity
nden
Unternehmens
49
Serie
ba
reagieren
Stadtzentrum
technik
IA
sky
fur@@
miss@@
Methoden
Liberalisierung
F-@@
primarily
remove
Quali@@
Laufe
taste
nah@@
sum
entered
evaluation
Pool
temporary
Lau@@
GDP
Männer
urban
schön
notice
Nice
kinds
ion
Mindest@@
97
lots
250
steel
Enjoy
ye@@
previously
thereby
Bewegung
Financial
bezieht
Dutch
ING
Gästen
anda
freiheit
multiple
liefern
requested
investments
Kr@@
es-@@
ball
bing
sam
Licht
consensus
quick
mb@@
digung
einzelne
Handel@@
accounts
imm@@
Mehr
Diskriminierung
ppen
Teilnehmer
Liebe
Prin@@
160
Romania
л@@
discussing
tour@@
ßt
Link
delay
stimmt
explo@@
spezifischen
abhängig
dest@@
squ@@
Absch@@
T-@@
mil@@
esen
ñ@@
Mad@@
delivered
bequem
Vil@@
bereiche
26@@
Grenze
head@@
gone
cam@@
angeht
ena
Netzwerk
Klimawandel
skin
Waren
Fähigkeit
umwelt@@
ktions@@
Leistungs@@
PL@@
Ordnung
1993
ly@@
leadership
barer
seitens
all-@@
weg@@
representative
Despite
8-@@
85
pension
ele@@
Fälle
bildet
competence
willing
pour
Suite
opposite
Pic@@
Dokumente
Westen
Wander@@
rail
Nicht@@
visible
intensi@@
Koordinierung
Industri@@
к@@
danger
sten@@
akzeptiert
default
Bank@@
Maria
feeling
Ansch@@
Tiere
Reaktion
ffen
IB@@
20.
positiven
Brenn@@
Minutes
controlled
southern
manufacturers
holding
Freunde
atives
betont
prepare
tem@@
hy@@
regionale
alle@@
Anpassung
Militär@@
preis
tenden
eng
dealt
spezifische
Versuch
Beh@@
gemein@@
leiden
Kombination
Lehr@@
letter
rati@@
dol@@
Unterschiede
Gefühl
sicherstellen
Willen
affect
SO@@
Amerika
set@@
Pop@@
wealth
urge
wirkt
PH@@
ländlichen
Day
speakers
sanctions
moved
forum
wards
demo@@
runs
PC@@
Dadurch
represented
Such@@
diverse
conduct
Stunde
ard@@
compatible
ez
verlieren
Two
übernommen
sian
breite
presentation
í
Umständen
Wegen
tain
deb@@
destination
Vorbereitung
cies
höchste
Körper
significantly
Before
dlichen
Ther@@
Gesetze
sur
Telefon
fruit
rechts@@
approval
dritten
Find
06
Süden
eins
EG
andererseits
m-@@
Via
parti@@
Zustand
noise
GB
basiert
strength
quote
serviert
nochmals
Nov@@
AT
ked
ehemaligen
author
Kam@@
dig@@
zustimmen
Anliegen
Kri@@
viel@@
Diskussionen
ergeben
verstärkt
shape
recommended
Aqu@@
Strategien
Bahnhof
expertise
alter
tigkeit
Vielleicht
Vit@@
Eigenschaften
hinter@@
Teilnahme
sle@@
ül@@
Spe@@
arbei@@
z-@@
abo@@
launched
gewisse
Delegation
Roman
nötig
preise
locations
Einklang
wiederum
bericht
Anlage
PS
seien
Mul@@
improvements
ón
fr@@
charming
mechanisms
dig
Erd@@
Mein
Nutz@@
highlight
Bedenken
Studie
helping
knows
websites
relatively
ppe
Techn@@
bon@@
soweit
Support
length
amongst
fei@@
Tru@@
cing
Je@@
gestern
helps
mutual
derzeitigen
mental
haltung
Kunde
micro@@
engineering
refugees
vielmehr
Freude
expectations
gens
zunehmend
reply
Verbraucher@@
consultation
abkommen
esti@@
Regierungs@@
zt
grün@@
Schule
sieben
Back@@
White
WC
verlangen
boat
covers
Kollege
zieren
Lebensmittel@@
bedrooms
trees
Gener@@
bung
Poker
Spiele
Verfügbarkeit
en-
experiences
39
interpre@@
delegation
Rotary
Reg@@
ran
except
ile
schei@@
Hilfs@@
requests
sold
keiner
Voraussetzung
Express
21.
umfassenden
Munich
acting
sper@@
MO@@
opp@@
amerikanische
ED@@
Fern@@
X-@@
Che@@
Sanktionen
ced
p.m.
unternommen
Wien
attitude
cel@@
Antworten
units
dir
privacy
Book
schen@@
weltweiten
western
fill
Straßen@@
taxes
Sha@@
tritt
solve
Ob
genauso
historische
finding
anerkannt
lern
preis@@
behörden
wichtiges
werfen
discovered
Fas@@
lauf@@
dert
\
Kosten@@
Rou@@
tra
Prodi
respective
articles
Geist
trotzdem
kol@@
02
Formular
Ges@@
aging
aro@@
befassen
furniture
Plaza
Mak@@
qualität
AU@@
faced
cri@@
din@@
Tod
Tit@@
stro@@
ausschusses
ong
hilft
ghts
streets
l-@@
tau@@
Technology
deiner
03
Standard@@
heraus
th-@@
Allgemeinen
dishes
cheap
aktive
ala
gegen@@
profit
höhere
dinner
los@@
Effizienz
3D
Wider@@
fighting
Take
Grundrechte
drugs
Apartment
behandeln
Zugriff
f-@@
trau@@
obligation
ände
politicians
regret
Raum@@
Mikro@@
Sam@@
latter
appeal
bio@@
Untersuchung
Architektur
elled
spot
Verhalten
texts
kleiner
Karten
Sitz
rejected
ziemlich
Geh@@
Str@@
hoher
Definition
temperature
Küste
tours
sorgt
ruhigen
ktive
appreciate
compensation
Berücksichtigung
fantastic
Vis@@
dans
Übereinkommen
River
700
Power@@
mitten
healthy
techn@@
dienste
gespielt
Industrie@@
kan
walls
emphasis
lam@@
jemand
Schi@@
identi@@
Prof@@
constant
rely
Welcome
tran@@
konkreten
Schäden
120
enth@@
arch@@
gsten
Tatsächlich
emphasise
Kapital@@
ativen
Kauf@@
recognise
Fil@@
extension
centres
willkommen
tho@@
Gold
Beifall
exists
10.@@
ст@@
arrangements
Wil@@
betreffen
PDF
error
producing
Grundsätze
esses
niemand
sicher@@
1000
ktion@@
menschlichen
reflect
ania
erhältlich
buchen
ills
watch
Putin
Auftrag
handling
0.000
figure
Britain
hum@@
Mau@@
gungen
User
equ@@
resolve
Chamber
objects
Sel@@
truth
Buch@@
Paper
cycle
wesen
schätzen
ble@@
beg@@
xes
suffering
Video@@
not@@
Lebens
master
Verträge
Use
helped
ama
q@@
beträgt
operators
intention
karten
duc@@
audio
dates
kat@@
kal@@
Liber@@
sinn@@
Pf@@
44
ered
produkte
profile
ligh@@
eiten
substances
entdecken
erscheinen
comply
lim@@
Letz@@
proof
Lord
tern@@
Materialien
schau@@
tter
acy
Camp@@
Bl@@
Friedens@@
log
output
parallel
Bau
Flu@@
künftig
reich
S.
Kategorie
rup@@
Leitlinien
ared
ads
cent
ello
unge@@
Fernseh@@
IP@@
whatever
OR
Maßnahme
Test
schließt
David
Norden
NL
affairs
Eis@@
mobility
Pl@@
Verbrechen
omm@@
kamen
drawing
begonnen
happens
eröffnet
valuable
School
Werk
disaster
cross-border
chter
reserve
president
kulturelle
pping
Ambiente
gei@@
hostels
comple@@
info
ences
Bat@@
formen
entlang
Nachfrage
Sand@@
tis
confirmed
largely
creative
Anfragen
marks
inzwischen
sh
Kind
AV@@
recognised
applicable
entertainment
tut
friend
Ohne
Wirtschafts-
sla@@
Netz@@
führende
Völker
naturally
glichen
Where
low-@@
ativ
Rule
manager
yes
diseases
dungs@@
Wahrheit
renewable
Gol@@
Landwirte
Sc@@
Datenbank
album
trac@@
Old
wesentliche
ual
Safety
Dort
Bil@@
ticket
assist
Fla@@
wissenschaftlichen
Mehr@@
CO2
eigenes
zusätzlichen
Essen
Gedanken
opposed
RO
brechen
Wo@@
Absicht
Instead
exclusively
ł@@
dining
A3@@
italienischen
Erwartungen
kurzem
sofern
CS@@
staatliche
personally
tiv@@
row
institutionellen
chain
pose
spring
zus@@
ständige
Ferner
Sach@@
näher
fraud
outdoor
interessiert
43
automatic
reali@@
Zoll@@
stehende
millions
Schaden
Japanese
bus@@
inv@@
Strategy
best@@
fähig
haf@@
waters
mitteln
couple
rasch
Rob@@
angemessen
Ministers
sauna
burden
eight
schönsten
PS@@
west
officials
ernst
USD
LO@@
audi@@
installiert
DA
separ@@
whilst
volume
leisure
impressive
Hau@@
fies
fail
ater@@
verändert
Mittelpunkt
atory
charges
zentralen
heavy
determine
arian
tex@@
entwickelten
Swedish
eye
spo@@
Rat@@
involving
serv@@
constructive
grundlegenden
B-@@
dige
27@@
U.S.
ony
rt
Entwicklungsländern
Menschen@@
legi@@
lay
lab@@
offen@@
Fischerei
inf@@
1991
Weiter@@
load
lon@@
exceptional
Stand@@
Experten
urs
zieht
increases
castle
lle
pieces
1989
natürlichen
smus
insi@@
195@@
schwierigen
Alternative
journey
tur
Dol@@
Good
neuesten
hervorragende
Angriff
ani
Schweden
criticism
Beratung
stellten
Shop
Autom@@
radi@@
offices
Einstellung
zweifellos
41
Schengen
freundlich
Berufs@@
2013
gefördert
Charter
BR@@
prove
amounts
besitzen
post-@@
equally
Emp@@
Alp@@
öffnen
dorf
Verbesserungen
lebens@@
kostet
Badezimmer
Bay
Beispiele
Tagung
ausgezeichnete
perform
sup@@
fein@@
cold
niemals
meist
Spar@@
Foto
HT@@
protecting
decorated
SM@@
Cli@@
Blo@@
Verkauf
laut
bestand
command
zuerst
leaving
Bru@@
George
kämpfen
Englisch
lovely
Europ@@
ght
gener
Normen
fassen
mandate
erheblich
Special
q
getragen
passengers
Dublin
M-@@
Klima
erweitert
ni
5.
Los
sz@@
Over
eten
On@@
bedeuten
speci@@
westlichen
east
lan
offenen
residence
removed
obtained
sätze
Regime
mt
2012
Fenster
fran@@
hit
anlage
aden
doors
unmittelbar
peoples
tickets
atoren
directives
finished
ries
schnelle
prec@@
Stein@@
Komp@@
brief
weather
teilnehmen
11.
kenn@@
organizations
Jan@@
involvement
Kab@@
ando
ky
parks
Wirklichkeit
medium
maschinen
weshalb
Nahen
blu@@
lied
treaty
resi@@
Ladies
erer
strategies
password
Canada
father
happening
bezug
täts@@
höchsten
edge
Bucht
einfachen
entstanden
Hil@@
Lab@@
scht
Strukturen
cc@@
mi
Fac@@
starten
Ant@@
combating
proved
ziele
Agrarpolitik
Rechts
Their
blue
seeing
ok
Unterschied
nahm
ausgezeichneten
kurze
allgemein
depends
München
berechtigt
gas@@
anische
parents
sexual
Park@@
Ausstattung
Kommunikations@@
ú@@
trägen
maintained
fee
DS@@
Boden
blog
Websites
ktes
Van
verlangt
Kra@@
eyes
Bes@@
Waffen
rating
Sou@@
11.@@
kung
remaining
contributions
teilt
räume
Sho@@
ele
tenen
Ab
Lag@@
bemüht
grundlegende
stag@@
Tar@@
produziert
USB
launch
Tourismus
chinesischen
creates
aufzunehmen
tter@@
Ratsvorsitz
define
behalten
Croatia
Dusche
präsentiert
organisiert
fäl@@
colour
ursprünglichen
issued
Sü@@
connections
renovated
Cat@@
abroad
died
ktiven
occasion
balcony
Halb@@
occup@@
aktivieren
gate
nam@@
AND
Empfehlung
communications
musste
bli@@
Dorf
Maschinen
Flash
Action
hall
wa
welt@@
entscheidend
Vision
ought
Kin@@
discharge
precise
falsch
Dem
10-@@
tre
Hostelsclub
vorzu@@
meat
drink
rein
Stellung
gewi@@
stance
preparation
R-@@
Anbieter
ett
Hy@@
weisung
Bestellung
spanischen
King
spec@@
Führungs@@
Basi@@
organized
rapporteurs
zugänglich
two-@@
GNU
Ausgangspunkt
bedeut@@
wünsche
divided
cru@@
jahr
restrictions
Ware
Jedes
Kredit@@
Robert
Revolution
riesigen
Pla@@
kla@@
reserves
requirement
surroundings
assure
vast
4.
resolved
markt@@
uss
behörde
Pflicht
Hafen
pack@@
zig
Kamera
stream
lus@@
dritte
soci@@
repeat
für@@
Überzeugung
doesn
Jahres@@
Problems
umzusetzen
weist
sm
classic
Sat@@
Zentral@@
Get
collective
iler
frie@@
TO@@
messages
Kann
roads
abgelehnt
Kooperation
ix
Airbus
Künstler
debates
cable
atischen
elling
definitely
mus
gratulieren
owners
Oper@@
Massen@@
Fort@@
derartige
Krankheiten
ó
п@@
Immobilien@@
let@@
Projekten
hren
identify
Punkten
Trau@@
lautet
USS
verursacht
contracts
04
übernimmt
regulatory
system@@
Des
Lauf@@
returned
höher
dd@@
regularly
migration
owner
Bulgaria
ain
Luxembourg
är
fehlt
Angst
Verbindungen
bike
betreffenden
schicken
opinions
UN-@@
Steuern
focused
pers
get@@
wirtschaftlicher
Mitgliedschaft
signs
investors
ela
extrem
chn@@
C.
tierten
vorgenommen
characteristics
bild
46
dur@@
Abschnitt
47
Music
wirksam
Boo@@
erlauben
chtung
ham@@
PRO@@
will@@
atten@@
hardware
termin@@
funktionieren
resolutions
systemen
s.
maschine
Geräte
defend
Abkommens
ome
anstatt
etzen
pfen
Lim@@
worse
zogen
Front
liberalisation
schafft
extra@@
Harmonisierung
Gleich@@
driver
Under
vieler
freundliche
Post
verschiedener
Erholung
ended
tag@@
facts
Mac
Alter
Log@@
tene
intend
derung
faster
Hinter@@
Mach@@
erei
bekämpfen
Sy@@
EF@@
durchzuführen
Executive
künftigen
MEPs
stände
continent
komme
vollständige
verstanden
transportation
Java
properties
Veranstaltung
glad
Gebrauch
hundreds
sehe
Farbe
recht@@
realistic
Black
AP@@
involve
conflicts
fordere
carbon
ques
proud
Beweis
Klasse
Ele@@
zuge@@
Eltern
sichere
prakti@@
Marina
main@@
isation
Sit@@
mo
ening
awareness
Will
Mich@@
OM@@
mul@@
topic
ethnic
plätze
Rumänien
ecken
echten
impression
Life
Fähigkeiten
Netz
a.
Ausführungen
conducted
leben@@
Polish
Film@@
umgeben
S.@@
ergriffen
V-@@
weiten
facilitate
mod@@
Gestaltung
joined
Ci@@
heating
Sauna
Entwicklungsländer
isi@@
wachsen
plays
Partnern
starts
suites
Tisch
operational
deli@@
jährigen
gliche
Wird
Verhandlungs@@
seat
sinnvoll
Ag@@
aufgefordert
deals
grow
understood
dynam@@
Procedure
¤
lift
tende
frequently
updated
Organ@@
displayed
Reform@@
Ausnahme
ino@@
Box
ima@@
settings
confirm
Assi@@
dam@@
bezahlen
teren
Gegend
.org
depending
Strukturfonds
fizierung
license
kurzen
wers
IC
Buchung
Ratspräsidentschaft
sole
familiar
Ara@@
nachhaltigen
tigung
wär@@
performed
iten
Konflikt
52
nights
printing
mus@@
Las
enzen
wie@@
effectiveness
ê@@
Änderungsanträgen
zahl@@
.000
schlägt
Ausstellung
Mari@@
firstly
appointed
conc@@
sern
Element
mostly
Sommer@@
Staat@@
bre
Übereinstimmung
klaren
annehmen
gespeichert
Wohl@@
Austausch
9-@@
Programmen
festival
komp@@
u.a.
int
Award
Institution
Hü@@
customs
machte
Nein
eth@@
Vorschlägen
avec
satz@@
beschränkt
submit
frag@@
Thomas
irs
Pass@@
aktiven
formed
ausgeschlossen
ong@@
demanding
Nachrichten
iso@@
ac
Tom@@
somewhat
bridge
clubs
schem
Schwerpunkt
Second
wasser
electricity
Den@@
ises
Messe
View
Hostels
Stre@@
Analy@@
ron
Monetary
eignet
uting
ession
ader
kop@@
answers
lec@@
18.
verbringen
gestellten
Umgang
reiche
aller@@
minority
interior
buch@@
Washington
kno@@
früheren
decision-making
ultimately
Geschäfte
sicht@@
Beitritts@@
universal
notwendige
pass@@
interessante
ce-@@
Fü@@
noted
beglückwünschen
durchführen
sight
Straßen
Dat@@
Real
messen
module
Ausführung
library
cr@@
blood
wan@@
Gentoo
ED
emergency
Drittens
grant
Kilometer
teams
gän@@
avi@@
Sun@@
ließ
Wind@@
Wissenschaft
jahr@@
Fri@@
techniques
Schlafzimmer
wen@@
Führ@@
Hall
ros
ny
gold
tes@@
inflation
meant
Brazil
mä@@
tierte
ish@@
Mensch
Whether
verabschiedet
personnel
SMEs
ministers
träge
een
sodass
geo@@
zulassen
dru@@
drivers
Framework
sk
Maß
visited
ton@@
provider
Arbeitsplätzen
leiten
bern
aria
sn@@
massage
ash
parliaments
zugunsten
Übersetzung
hervorheben
stars
Drittländern
51
Deutschen
füllen
Identi@@
а
iting
welfare
sch-@@
cross
ize
Förder@@
einzigartige
islands
bestätigen
igkeit
lounge
zuständigen
hostel
hö@@
Mexico
kanischen
tically
angemessene
mar
accompanied
verhindert
reported
gehende
Kontakt@@
custom@@
va@@
ausgesprochen
fru@@
ausgesetzt
statistics
chemical
li
studio
prefer
career
Luft
northern
mol@@
breiten
grateful
ail@@
lists
bound
metal
russischen
Prinzipien
Gleichgewicht
theit
ado@@
well@@
Komponenten
follows
Planung
Cyprus
looked
modern@@
or-@@
Ide@@
contrast
vorher
farm
zunehmen
Radio
Besonders
Faktoren
geprüft
Tim@@
subsidies
ased
valley
ont
liefert
Yes
Verringerung
windows
gearbeitet
Rund@@
Werbung
wann
Alles
relaxation
delighted
Firmen@@
passiert
rie@@
satisfied
Beziehung
Miss@@
Euro-@@
nungs@@
invite
wines
druck
famili@@
bom@@
Vereinbarungen
aufnehmen
indicated
woman
corner
deckt
Aut@@
presents
contacts
Beiträge
stored
orial
eastern
Gerichte
Saint
pm
erst@@
Kas@@
rou@@
Church
unmöglich
Außenpolitik
BIP
ordin@@
percent
Optionen
sor
Mur@@
cked
Wein
channels
terrorist
Sonne
Fun@@
Gesellschaften
kli@@
Plenum
Schluss
definiert
flights
arrive
Wol@@
MySQL
verringern
aw@@
sucht
ita
newly
Gemein@@
visiting
Handeln
72
corruption
î@@
Copenhagen
functioning
recommendation
tourists
höheren
feed
Chinas
Einstellungen
entsteht
Lö@@
pped
Les@@
exciting
dence
Jede
Festlegung
actively
judicial
kn@@
vacation
widely
belie@@
scheinen
hot@@
Budapest
match
visa
&apos;ve
Congress
Drogen@@
Plattform
desk
Transport@@
entwurf
welchem
tea
Verb@@
elten
entrance
Gespräche
cosy
declared
Zimmer@@
imposed
Report
firms
pollution
verleihen
Band
direkten
careful
bert
Morgen
Wünsche
eckt
bilateral
dan
d.h.
AK@@
Mün@@
showing
dal
Währungs@@
Individu@@
burger
Edition
einhei@@
serving
schlecht
rock
Zusatz@@
explore
86
decken
Friday
nahmen
fläche
afternoon
Bemerkungen
inhabitants
gert
aged
soli@@
gardens
Prop@@
ungefähr
LE
involves
Brand@@
SS@@
cket
Straf@@
cont@@
Garantie
Prague
Neue
verändern
Act
rechtliche
tlicher
priv@@
gebiete
configuration
sierte
2.0
Pet@@
Ausgabe
ska
eres
demonstrated
erreichbar
gestaltet
speaker
expert
vertre@@
gran@@
turen
psych@@
geboren
winning
Trek
Noch
deck@@
dich
nieder@@
Adobe
ación
Earth
formal
Regierungskonferenz
PO@@
Frei@@
e.@@
Aktion
wollten
pris@@
reifen
News
linien
occur
gerichtet
1st
erleichtern
Perhaps
ils
heritage
ausgeführt
Sony
declaration
cast
eff@@
maintaining
ero
Protection
nahezu
assets
werten
licht
sorgfältig
Minderheiten
gg@@
fördert
intellectual
fashion
competent
Design@@
EG@@
Verteidigung
Zentralbank
aj@@
Funds
Deswegen
Haftung
kürz@@
Ed@@
motor
Zwischen@@
spoken
Fru@@
Ziffer
transition
collaboration
begrüßt
reject
boot
erneu@@
Zer@@
gio
ck-@@
Given
Stück
ongoing
betra@@
Justiz
Soviet
lebt
strict
earth
oriented
Ster@@
conditioning
stellungs@@
functional
Baltic
remote
quarter
heits@@
tennis
hinzufügen
resistance
demonstrate
Kurz@@
desired
Je
expansion
settlement
Sicher@@
plenty
brau@@
top@@
schauen
Verbot
high-quality
Veröffentlichung
Gründung
Sorgen
nat@@
präsentieren
kin@@
theme
12.@@
3,@@
gungs@@
solange
Arab
überzeugen
esch@@
ч@@
Port
ère
fitness
films
channel
bemühen
letztlich
bestimmen
illi@@
EM
Golf@@
categories
rapidly
holen
tos
staat
bestehende
facility
trafficking
Datenschutz@@
iner
hän@@
documentation
aly@@
appearance
Kir@@
usual
Sollten
perfekt
Rom
è
heutige
я
stylish
Marktes
committees
Einbeziehung
Studenten
Poly@@
Or
department
Question
Chancen
generated
Rest
spra@@
passenger
organisationen
gezwungen
ausschuß
frame
ambi@@
recorded
Portuguese
Charta
regarded
PP@@
Sozi@@
Werbe@@
gallery
Mobile
Jun@@
educational
Sei@@
billi@@
Cri@@
15.
artist
concluded
basi@@
verehrte
possibly
gewal@@
eing
klar@@
raw
Umfeld
früh@@
Skype
Insbesondere
Ferien@@
ending
geltenden
phrase
vil@@
KMU
justified
essen@@
Bewer@@
sharing
Sollte
swe@@
betrieben
Description
dokum@@
Hostel
glob@@
owned
Marketing
with@@
glaub@@
awarded
conf@@
Applause
exit
zeichn@@
containing
Sim@@
cutting
bottom
einrichtungen
Dru@@
mas
Flo@@
Mobilität
lösung
standen
foundation
aches
moral
auer
ž@@
bet
James
long-@@
argument
replaced
erinnert
apart
G-@@
schlag
hair
vorlegen
Software@@
54
Balkon
Preisen
dependent
britische
mix
and-@@
Obje@@
lasting
ös@@
beraten
sierten
Webseiten
emerging
dürfte
individuelle
Zielen
Tou@@
Mö@@
ond
planet
selbst@@
lokale
ferner
bereitet
Struktur@@
towns
mother
ade@@
Tab@@
Fein@@
sil@@
Eurozone
Plus
Identität
lauf
liegenden
treiben
IV
Town
isen
zun@@
flows
Untersuchungen
å@@
tierung
wed
Nah@@
zieh@@
installieren
handel
Vorgehen
saving
jegliche
respected
count
з@@
copyright
assume
oc@@
overcome
Computer@@
ap
Hungary
Versionen
CE@@
tested
def@@
Quar@@
Kurs
het
cian
Waren@@
Freiheiten
abgestimmt
minorities
routes
igung
credibility
tackle
Acc@@
este
nit@@
verkaufen
App@@
tischer
spectacular
TO
eds
König@@
TS
Power
IT-@@
Selbstverständlich
verdient
Mol@@
spann@@
Northern
Puerto
Vorschlags
entes
benen
crimes
erfolgreiche
partly
sich@@
wohnen
ham
professionals
Training
heat
determination
Update
verhalten
Wachstums@@
MB
satisfaction
organisieren
prozesses
flat
Glas@@
Cha@@
einig
Fle@@
stronger
übrigens
Belgium
respon@@
ersetzt
acted
Fischer
vorschriften
Newsletter
Women
dance
Kräfte
puts
absch@@
nissen
tigt
entscheidende
Gest@@
Werke
ups
programms
Bars
direkte
größer
Wir@@
sie@@
jün@@
individuellen
Signal
Konsens
Ram@@
Gerichtshof
weite
transactions
occasions
verurteilt
oni
su
Arbeitsmarkt
verkauft
vorhandenen
yed
scheme
Politiken
entwickelte
marquis
wat@@
kri@@
lik@@
Mitarbeitern
stischen
ney
beziehungen
isch-@@
Asien
zentral
dens
wand@@
immigrants
Verbreitung
sprachen
Studien
ency
einheitlichen
ds@@
manufacturer
alization
Network
reduzieren
correctly
Internet-@@
Oder
beruht
geräte
fans
els@@
ora
reform@@
replace
rali@@
fon@@
gewährt
Pact
Parlament@@
Within
Fel@@
din
6.
Amendments
ards
Tour@@
inst@@
enjoyed
erhebliche
tables
äußern
weekend
cash
Kli@@
Zwecke
begrenzt
vorstellen
Anschluss
non
Well
leb@@
Show
arrived
bekannte
strategischen
Eu@@
bekämpfung
Besorgnis
sicheren
grundsätzlich
Desk
gerät
EX@@
Krankheit
aussch@@
Nachricht
CE
still@@
gehenden
genannte
derer
housing
Wi-Fi
lob@@
Space
inklusive
liberal
moti@@
Israeli
slightly
kg
ci
Food
miles
Canon
sending
ico
corresponding
quali@@
rental
adults
Städten
ental
Vorstellung
VI@@
digt
Don
Following
drinks
Champ@@
Einwanderung
mach@@
legitimate
Rezeption
peti@@
constitutional
tives
Wirk@@
Page
Cu@@
tan
EP@@
Gewicht
Sein
mö@@
räger
rap@@
Kapitel
industri@@
â@@
herr@@
solid
direc@@
kam@@
component
Freunden
angebot
beschäftigen
Flü@@
einfacher
Hohen
ruhig
genügend
Tan@@
losses
ski@@
ées
informationen
p-@@
youth
kungen
shares
Extre@@
·
distributed
Bedrohung
nunmehr
index
raten
drücken
ace
Medien@@
suppliers
Taiwan
buch
J
funktion@@
aum
inde@@
banking
providers
cuts
subsidiarity
sensible
Schulen
updates
angegebenen
versorgung
kel@@
Videos
steuer@@
tun@@
offiziellen
division
destruction
vin@@
OF
mächti@@
orts
Dach@@
cab@@
magnificent
cial
Bemerkung
rising
constitution
Zone
jenen
wrote
Hier@@
sprach@@
läßt
identified
194@@
EB@@
Kap@@
effektiv
Asyl@@
aner
denden
Malta
egal
ais
taxation
Erzeugnisse
hängen
Fal@@
Benutzer@@
Systemen
Denk@@
7.
Pack@@
üb@@
Without
Atlantic
zusammenarbeiten
addresses
maritime
ishing
dul@@
aussprechen
Selbst
elsewhere
globalisation
führten
sprach
behaviour
interpretation
werken
jo
gebieten
Son@@
considering
kompet@@
fas@@
eventually
Auge
gesellschaften
vorbereitet
Wohnung
NI
außerordentlich
Europol
disp@@
fantas@@
gangs
exception
wege
Ton@@
französische
leistung
kel
tered
wear
AN
sin@@
sü@@
VAT
verstärken
filter
Py@@
secret
gere
Marke
Ah@@
ensures
Zusätzlich
herrscht
erfolgreichen
gewonnen
milk
Termin@@
electric
AD
verbinden
exports
Kauf
71
thy
Fon@@
Schwei@@
par
aufs
etes
ump@@
battle
domain
uss@@
Sektoren
lers
oning
ented
Gran
modell
68
Kyoto
straight
traditionelle
Kontrollen
Structural
Hungarian
sit
preparing
Tau@@
vic@@
tively
SV
but@@
virus
Gesam@@
encouraging
extraordinary
Neben@@
Sunday
jener
Viertel
pot
erhielt
Herz@@
unverzüglich
fs@@
sprech@@
schrift
Mission
Valley
erlebt
wissenschaftliche
generate
decisive
arti@@
poly@@
Blog
53
proposes
Thirdly
se-@@
courts
17.
slow
eingereicht
irgend@@
wiederholen
Eisenbahn@@
Vel@@
aux
verantwortungs@@
politi@@
56
Wohlstand
drei@@
hear@@
liked
gste
motor@@
ologi@@
Balkans
scene
Kop@@
Islam
roman@@
deficit
vulnerable
Charles
Zy@@
TI@@
Salzburg
disk
mali@@
filled
label
dischen
asser@@
citizen
Bereitstellung
army
Year
ständen
prü@@
Einkommen
schm@@
por
didn
66
Erstellung
everyday
Vorsitz
op
Like
enhance
vieles
Stimm@@
lock
topics
entscheidender
schu@@
vely
beigetragen
surely
fügt
Beschluss
succ@@
beschrieben
Lieferung
Schwar@@
Dre@@
bonus
transpor@@
rum
Cer@@
packaging
plenary
complicated
tief@@
substance
großem
portal
sugar
luxurious
university
UC@@
Pakete
Touristen
supplies
Roh@@
hen@@
Verk@@
selling
finanziert
spoke
et-@@
anz
Einheit
Spaß
accurate
lessons
WLAN
Fuß@@
Lok@@
organ@@
ähnlich
virtual
invest
Client
kleines
ulate
inclusion
ites
essi@@
Schw@@
Nos
kts
examine
Ungarn
§
gefallen
Exchange
Theater
20-@@
directed
Männern
patent
sitz
connect
Assembly
bislang
8.
proven
fahrer
verst@@
wunderschönen
Katastrophe
Blan@@
Schlussfolgerungen
kräfte
revi@@
zustellen
selben
Main
zeichnen
specified
jährige
elektronischen
bestimmter
CON@@
excessive
Gran@@
Thursday
Garden
inger
therapy
Mangel
dende
Cra@@
ride
beteiligen
videos
theory
enabled
derte
Staates
gestattet
break@@
intern@@
Ansichten
Person@@
Dienstleistungs@@
impose
conver@@
suffer
verkehrs@@
vermitteln
integriert
Live
heben
Rap@@
concepts
mes@@
mot@@
Pul@@
16.
stolz
itäts@@
wohl@@
renowned
erzeugt
leistungen
ungser@@
absence
deposit
fly
zahl
einzigartigen
alized
kraft@@
teilung
forests
Genehmigung
Brasilien
ping
description
adopting
shipping
wechsel
dt
asses
voraus@@
Sicherung
diplom@@
hundred
ahn@@
Einwohner
viol@@
greatly
gut@@
Kontext
ag
Ep@@
Digital
Mail@@
A.
savings
Polizei
directory
Zwei
Vater
menschliche
unden
proceed
schwer@@
BMW
ums@@
verbindet
arm@@
drug
tei@@
abuse
solches
Rechtsgrundlage
Konto
tin@@
Alt@@
ville
traditions
anwesend
centuries
hervor
ere@@
foot@@
handle
investieren
finish
carrying
angegeben
geschichte
Besides
applying
lad@@
departure
layer
heim@@
wonder
suggestions
arischen
gli@@
gained
Bou@@
Law
voluntary
Rein@@
Grad
akt
Modelle
Datei@@
schla@@
solely
häuser
proposing
eit
alities
Rus@@
raising
countryside
mischen
equi@@
villages
druck@@
subjects
Konsequenzen
kette
Games
Guests
BO@@
ordinary
Lounge
Image
Rahmen@@
heim
absor@@
aqu@@
vent@@
lined
Mail
Gold@@
formation
chem@@
COM
Publi@@
Rich@@
Bern@@
Schiff@@
Provinz
Eli@@
trial
paying
duties
Pin@@
fern@@
supplier
AC
Cup
colours
Darum
sische
Gam@@
Gerät
Vier@@
Boden@@
eingehalten
hör@@
wave
klu@@
artistic
Entscheidungs@@
Dauer
asing
wirk@@
29@@
Nummer
Fax
bereichen
trend
representation
Hamas
gh
philosophy
59
UM@@
freut
gewissen
Wo
Landes@@
museums
skiing
CS
trips
ami
lieb@@
resul@@
geboten
Len@@
Budget
Sig@@
thousand
fuer
beantworten
appeared
treat
Positionen
impor@@
fli@@
Boot@@
individuell
Prozesse
grös@@
Tools
pursue
consent
Beschlüsse
Trop@@
nevertheless
Holiday
ologischen
aut@@
förder@@
Betrag
aut
weitgehend
bereitgestellt
toler@@
della
comparison
manche
Kroatien
Arbeit@@
promised
trag
Maastricht
ator@@
internen
Interessen@@
mati@@
reservations
Wählen
receiving
liefer@@
beobachten
100@@
Hot@@
auto@@
bedeutende
Set
Glaubwürdigkeit
Elektro@@
wert@@
input
inmitten
invited
Egypt
Tel@@
sheet
ähnliche
pression
Having
wiederholt
mussten
unity
obje@@
Rö@@
40@@
mechan@@
enswert
difficulty
sers
Schwer@@
ativ@@
tobacco
schie@@
zuständig
yo@@
ziel@@
root
Tool
punkte
vorge@@
Überlegungen
effizient
wechsel@@
vorher@@
award
bekommt
portfolio
-based
Ol@@
reli@@
bergen
dienst@@
lte
New@@
non@@
nde
ests
Parkplatz
Völker@@
Kopf
Kulturen
ausgezeichnet
Strom@@
mittleren
gebildet
sozialer
hr
uted
entspannen
Trotzdem
sichts@@
Islamic
Ganz
anbelangt
Kontakte
sus
pools
92
Wur@@
erstmals
Legal
б@@
smo@@
überprüft
Quality
Zivilgesellschaft
Reduzierung
suggested
Gegenstand
Bulgarien
Num@@
pes
wirtschafts@@
SA
Hom@@
mid-@@
Suiten
langfristige
58
Gast
ring@@
laufenden
St
Situated
Castle
cle
probleme
prosperity
zäh@@
einbezogen
UT@@
pure
elec@@
Korruption
ema
sicherung
Sum@@
niveau
stages
ursprünglich
Cur@@
Agriculture
dene
steh@@
Playa
langsam
relative
Menü
disabled
Monday
productivity
Mrd.
wach@@
Gehminuten
pel@@
periods
fertig
arguments
optimale
Schlüssel
eat
Glück
Browser
Anlass
quar@@
Professor
Mr.
Geschmack
welcoming
oper@@
delicious
well-known
Mont@@
necessarily
ization
Körper@@
depend
Blu@@
reduziert
attempts
schwei@@
GN@@
steuern
moder@@
ading
CF@@
Gefahren
patient
confirmation
Budgets
Based
ols
akti@@
arbeits@@
spartner
Americans
them@@
wirtschaftlich
weak
Vorhaben
ov
Energien
sounds
cleaning
angesehen
symbol
kes@@
referendum
gerufen
wis@@
Christ@@
AM
richtet
a.@@
Kollegin
fang
import
Stoffe
leaves
hill
chtet
pä@@
religion
ET
Politik@@
dauert
Dafür
ail
Gewährleistung
kunden
Strasbourg
Konzer@@
tier@@
passen
addi@@
Eigentum
verteilt
utz@@
Akti@@
Offen@@
setz@@
shot
esse
Sec@@
ausgerichtet
pt
Lebensmittel
Finanzierungs@@
united
verein@@
AR
Gut@@
stil@@
stern
auftreten
politically
DO@@
homes
steigt
farming
ano@@
enabling
villa
Mes@@
overview
letztendlich
EA
Tip
Aufsichts@@
dream
10.
betreiben
imports
Key@@
bank@@
Apple
projekte
Pil@@
täglichen
reit@@
permitted
lev@@
unds
istic
oria
effe@@
Tem@@
©
eil
ura
lobby
satisfactory
Tele@@
änden
Wes@@
behaupten
schnell@@
sau@@
Place
ausgegeben
entschlossen
inos
gründen
allocated
regul@@
Schiffe
estimated
Bahn@@
Verlust
constitute
Gerade
bach
stä@@
societies
verkehrs
zukünftigen
Tat@@
Wirtschaftswachstum
verfügbaren
unforgettable
ersetzen
4,@@
rare
Kriegs@@
Master
stab@@
Federation
supposed
succeed
ration@@
killed
Bul@@
Pau@@
Bade@@
ign@@
ling@@
fü@@
ori
88
significance
Facilities
Programm@@
publication
hierbei
cooperate
welcomed
vierung
Through
camp@@
kontaktieren
Pon@@
künftige
XP
instructions
Gaza
continuous
gedacht
gnis
Fahrzeuge
sah
upper
Erfüllung
recognized
inten@@
wireless
gelingt
üt@@
Entlastung
zentren
kontrolle
Praktiken
Personal@@
einzusetzen
Telefon@@
refer@@
Sterne
militärischen
Wald@@
versichern
obliged
beendet
visu@@
alt@@
stimm@@
Belgien
unterscheiden
Gericht
cell@@
speichern
Asian
größeres
clean@@
entspann@@
fourth
Genießen
ame@@
Thailand
Übergangs@@
functionality
Les
ECB
mangel@@
verteidigen
ital
iPhone
individu@@
sparen
angepasst
fir@@
konfrontiert
Cent@@
altern@@
trieben
tree
specialist
Kommissions@@
toward
Who
militärische
klein@@
programming
ès
Schiff
9.
cos
breit@@
h-@@
destroyed
й
konzentriert
Prozesses
spiele
struktur
ute
initi@@
gendes
missing
tionally
allzu
bis@@
Pun@@
Rol@@
geschäf@@
offene
Freitag
legte
Verfassungs@@
refers
hardly
cells
contributed
ario
12.
Ausflüge
klein
Berliner
Anstieg
illu@@
actors
Point
Islands
leu@@
stör@@
Gerechtigkeit
gue
aktiviert
richtung
Finland
remained
cot@@
Prüf@@
ра@@
Posi@@
Verletzung
fundament@@
bares
prime
Gemeinde
lived
interessant
song
Refer@@
welcomes
organic
anc@@
covering
sections
griffen
Mei@@
fähigen
grenzen
leh@@
spa@@
inner
pen
unabhängigen
ter-@@
Frühstücksbuffet
hier@@
ee@@
Guide
Perspektive
Rem@@
modules
characters
negotiating
67
Vene@@
Play@@
Mut
dau@@
Nachbar@@
Australia
designs
Drei@@
armed
57
füll@@
gelegenen
bestellen
HO@@
Feld
Amt
harmonisation
Sachen
ose
lunch
Übernachtung
Kla@@
fulfil
Verarbeitung
13.
rieren
dere
hospitality
luss
Runde
brachte
gelassen
Standort
waffen
supervision
prev@@
trends
suffered
Situationen
Inform@@
ssen@@
preventing
Nachbarn
hung
Family
ald
revision
Betten
hi
Next
Stad@@
Schweizer
Flüchtlinge
viertel
Terror@@
notes
wettbewerbs@@
euros
Zeitung
premi@@
Institu@@
unterzeichnet
institutionelle
amenities
thin
herunterladen
Krisen@@
fees
Wirtschaf@@
Gir@@
classes
explained
voc@@
Wechsel@@
mitteilen
FT@@
Organe
unterstreichen
gemeinschaftlichen
anim@@
aming
Weiteren
deswegen
ans@@
songs
bisherigen
adap@@
ehen
illegalen
sichtbar
Anti-@@
strategische
fanden
productive
adverti@@
ford
forthcoming
Pläne
äh@@
Märkten
Education
none
reaching
komple@@
lieren
indicate
blocks
uter
kern
NGOs
könnt
musical
thermal
vorzulegen
mitglieder
legally
Tätigkeiten
Willkommen
Eink@@
barriers
ô@@
betreffend
kund@@
freedoms
vollständigen
fax
lieber
wirksame
spreche
ey@@
arise
Sind
abstimmen
Tei@@
typ@@
gram@@
sphere
anschließend
Bis@@
Should
turning
belief
Finanzkrise
introducing
everybody
empfangen
zukünftige
Director
parameters
cour@@
Schon
restricted
hochwertige
doub@@
saved
Grünen
computers
Rent@@
conventional
Fehler@@
angebracht
pp
Donnerstag
Transpor@@
ologische
gap
Widerspruch
Grün@@
originally
aire
unterliegen
HTML
natürliche
grosse
itali@@
tari@@
sustainability
Wür@@
stocks
gewis@@
verwaltung
verdienen
roll@@
labelling
ergibt
archi@@
driven
vorgeschlagene
Project
movie
Regierungschefs
wellness
günsti@@
L-@@
umfangreiche
erzeu@@
Veränderung
Abendessen
Auditors
Vorsch@@
Don@@
football
geprägt
hart
male
coun@@
Est@@
sses
tory
Redner
Hab@@
movements
enhanced
AF@@
Venice
enterprise
wild
resource
Ankunft
firmly
Schloss
elte
severe
vorgesehenen
Andere
Saturday
combine
stück
PD@@
praktische
reflected
hydro@@
Schwe@@
fassung
transmission
langfristig
showed
dio@@
realise
Geschäft
fairly
alisierten
sauber
Zuständigkeit
halb
Sau@@
modi@@
unabhängige
Institut
drop
fährt
Ausmaß
VER@@
Zug
effiziente
materi@@
anzuzeigen
errors
Hö@@
Single
ffe
Stimmen
Internationale
Stability
hingegen
vertrag
behoben
Mallorca
remarks
beings
küh@@
anhand
itä@@
fuhr
pit@@
Ker@@
Top@@
selten
bed@@
Mah@@
Ablehnung
enge
anschließen
proceedings
Kanada
Leg@@
dering
suit
ras
Weg@@
Cookies
gemeinschaft
nutz@@
Komm@@
Vietnam
reflects
sing@@
tot@@
gor@@
ungs
Does
14.
AIDS
Piazza
imagine
considerably
Gor@@
wachsenden
strukturi@@
Fir@@
Serbia
vorbei
geraten
gesp@@
adapted
schule
budgets
Socialist
boards
zeug
gebeten
kro@@
vorschlag
lischen
ließen
SL@@
Rio
director
gesetz@@
hearing
Ga@@
Bot@@
Corporate
amazing
holds
cancer
Quellen
amt
Armee
collected
Vista
ed-@@
lösungen
ells
bat@@
obstacles
Vorlage
grade
tent@@
stieg
gene@@
thi@@
Regional
whereas
safeguard
Büro
edition
normalerweise
nd
Last@@
Konferenz@@
universities
olog@@
verti@@
Plas@@
parliament
án
ume
um-@@
täten
passt
sab@@
Zivil@@
CHF
gewähren
Leitung
wahren
Respekt
sogenannten
endorse
Anwendungs@@
Reisen
Roll@@
tracks
BI@@
Captain
elli@@
ete
coordinated
adapt
Stockholm
sammeln
Album
körper@@
tol@@
fikation
Bab@@
design@@
Berg
Ari@@
pressed
ih@@
märkte
faith
freundlichen
female
hervorragenden
mente
super
Kranken@@
fügen
regardless
acceptance
züge
romantic
Christmas
auff@@
ato@@
tert
Sul@@
Form@@
sach@@
dankbar
any@@
Ebenen
dargestellt
Cho@@
gemä@@
secre@@
Freizügigkeit
Geneva
Get@@
schnellen
grad
a.m.
Gerichts@@
tail@@
viert
Börse
normalen
Mutter@@
fast@@
investigation
greift
generations
chair
sights
fähi@@
63
ull
Sohn
Staatsan@@
decade
dry
Prote@@
0s
consulting
Partner@@
sw@@
anner
worthy
Führer
Road
gewünschten
Heizung
enthaltenen
servers
letters
birth
hohem
König
wür@@
dark
Abhängigkeit
Meines
ux
sierungs@@
vereinbart
Rückkehr
vessels
arbeitete
vorliegende
federal
konferenz
öffentlich
Indian
besonderer
ange
exploitation
82
sty@@
undoubtedly
verboten
Deutsch
tual
sischer
Aktionsplan
80@@
Abschaffung
Г
alem
nec@@
till
refle@@
shed
zahlung
managing
Forsch@@
Jugend@@
reaction
Urheber@@
methoden
Wochenende
Fan@@
amed
flächen
equivalent
eta
SW@@
pretty
altet
ollen
heißen
Erinnerung
sought
disasters
kontrollieren
Volkes
Mini@@
produzieren
Reservierung
tief
politisches
ichte
oned
compact
ished
ease
Pr@@
forschung
feu@@
dev@@
Entspannung
bereiten
dialog
gere@@
travelling
Haushaltsplan
Ale@@
xen
ernsthaft
Regel@@
iniert
erkannt
Lizenz
Kong
Hong
erfreut
ordered
Teams
ktoren
chti@@
Gang
griechischen
fleet
dict@@
geplant
sees
iled
internationally
lic
bende
Erst
printed
Stuttgart
checks
Typ@@
guided
Maschine
Sin@@
gal@@
nütz@@
ill
zuzu@@
jetzigen
krise
isti@@
Befugnisse
Geschwindigkeit
Culture
Konflikte
Beteiligten
automati@@
Lang@@
step@@
Customer
beru@@
metro
TE
dings
Sammlung
joining
fix
Dritten
atz
Equ@@
Orte
Jahrzehnten
Zahlungen
ind
EP
supplied
decline
restored
grenz@@
sin
rechnen
Marken
zog
Kirk
ji
nungen
underground
U-@@
cen@@
Fahrt
externen
Georgia
gefragt
bol@@
Got@@
bestimmungen
io
courage
inner@@
roots
hervorgehoben
neg@@
bemerk@@
antworten
Beide
sex
Quelle
ätze
protocol
komplette
script
Check
Dam@@
umzu@@
MA
Binnenmarktes
brow@@
absol@@
dent
Planeten
Symp@@
mouth
Tibet
Tür@@
überaus
Ali@@
Gleichstellung
vierten
seri@@
Administration
Top
einheitliche
Seri@@
Blut@@
Berichten
Mem@@
exclusion
ungsverfahren
vieren
Cy@@
Investitions@@
aufgebaut
us-@@
NO@@
cement
vali@@
abilities
nummer
sound@@
anywhere
believes
reliability
mess@@
mittlerweile
62
nbsp
pet@@
excluded
learned
cultures
erfordern
Tourism
i-@@
echn@@
mere
schweren
Up
profession@@
Exper@@
bezahlt
dische
trav@@
satisfy
Euch
Debian-@@
Prozess@@
wald
tier
Geheim@@
Handels
graphic
Tor
Kreditkarte
letz@@
entgegen
nicht@@
penalty
steten
leichter
play@@
Friendly
slo@@
commun@@
Kü@@
Blue
Sitz@@
unterschiedlich
erwähnen
deep@@
Großteil
Meeting
Dreh@@
hil@@
concentrate
Schönheit
tiz@@
beschränken
regel@@
besu@@
shift
klassischen
Foto@@
proc@@
mini@@
CD@@
restructuring
spi@@
ökonomischen
Vorausschau
zugrunde
Mutter
entdeckt
Bin@@
subsequent
diversi@@
oms
sse@@
Darstellung
floors
of-@@
überein
garten
transferred
violations
Allianz
niedri@@
korrekt
bedanken
missions
komfortable
emplo@@
processed
Opposition
gehei@@
analyse
untersucht
letzter
GT@@
clause
justi@@
existiert
Ursachen
но@@
reck@@
mine
humanitäre
ACP
nachdrücklich
Tal
77
steam
perfekte
bo
Location
zurückzuführen
umsetzen
leitung
sovereignty
gestaltung
ouse
Alexander
remin@@
formats
Schlaf@@
hierfür
dignity
Diam@@
Produ@@
Tausende
Hauptbahnhof
Information@@
stammt
non-smoking
anz@@
Tages
Notes
Verteilung
everywhere
groß@@
dating
69
aside
heit@@
GU@@
factory
assembly
eingegangen
LA
ories
counter
irre@@
hast
senken
ure@@
Ret@@
restore
Mir
Waffen@@
Optim@@
gestal@@
Casa
berichten
ко@@
89
Faktor
Der@@
umfassend
Schla@@
900
vice
magazine
kir@@
festzulegen
Kriminalität
Küsten@@
Red@@
Investoren
Agenturen
Gemeinsame
disc@@
kurs
rol
Pati@@
Eingang
Branche
Commissioners
melden
73
reserved
Ori@@
geleitet
Lizenz@@
Spielen
zeugen
einzuführen
faces
overlooking
prof@@
grossen
SD@@
Il
deut@@
Academy
produces
plastic
Balkan
meal
Rechten
greif@@
enorme
targeted
Museen
assess
Emissionen
sichti@@
dead
Nahrungsmittel@@
Passwort
approve
alisieren
cell
Nero
gehör@@
Generationen
Sol
panel
hoffentlich
Vertrages
Hat
pon@@
agi@@
Lat@@
listings
Sudan
tum
kamp@@
Arbeitsplatz
shadow
picturesque
musi@@
nine
accident
lädt
stan
student
strengthened
gering
deeply
miss
Will@@
undertaken
ae@@
treatments
selb@@
ten-@@
Früh@@
nes
kernel
alisiert
ager
Würde
Bag@@
EZB
Stock
Staff
wonach
Port@@
sand
meter
strasse
operates
Parameter
Bereitschaft
frühen
besorgt
Haut
bright
cool
graph@@
aling
Opera
erweitern
Koh@@
ilit@@
Musi@@
Mark
worst
promise
phones
A5-0@@
Somit
geeignete
seu@@
teils
begleitet
fut@@
offizielle
festgelegten
gaben
richtlinie
H-0@@
Besitz@@
Papier
ners
dei
Schön@@
Tag@@
diert
Be
Fernsehen
gek@@
Haben
Innenstadt
Ange@@
Rechtsstaatlichkeit
Would
intelligent
normally
Fr@@
steigern
sco@@
Events
fishermen
Pack
SCH@@
Sonn@@
93
merk@@
ähr@@
reconstruction
digitalen
eingeb@@
mem@@
ote
executive
Dies@@
IMF
bour@@
panoramic
angewendet
SE
stores
gements
stant
vornehmen
Deb@@
Anwender
1980
max
fähige
unfair
stattfindet
entering
Parkplätze
dness
luss@@
tionary
würdig
einfach@@
collec@@
gation
usage
hiking
freely
diskrimin@@
kap@@
Handlungs@@
Speisen
Among
activ@@
pressing
ison
ausgaben
mid@@
Stärke
festen
geäußert
Registrierung
izi@@
province
Spezial@@
Berich@@
Öffnung
posed
anniversary
irischen
stran@@
Bibliothek
61
linken
eingestellt
Bearbeitung
sende
Reserve
pur@@
illustr@@
bathrooms
verwende
ütz@@
presenting
Joseph
trat
superior
Kontinent
individually
Volksgesundheit
voraus
Tests
solar
ARE
Vari@@
Messe@@
qualitativ
Miß@@
Verlauf
Industry
ebene
Spitzen@@
ativer
-up
Umwel@@
gnissen
Frist
geber
dated
Strecke
SC@@
switch
empfohlen
Lern@@
peri@@
threats
türkischen
Amerikaner
prospects
ares
Denmark
tac@@
fangen
casino
gin@@
profits
engines
Niederlanden
briefly
keinem
revolution
Content
Dritte
Strand@@
manufacture
verweisen
beenden
imperi@@
collect
verfol@@
blei@@
taxi
konstru@@
popul@@
highlights
CAP
dollar
30.
lehr@@
Ferienwohnung
nützlich
prozesse
Währungsunion
attached
funded
Kompetenz
V.
reputation
Golden
UL@@
gement
Consumer
Motor
grown
Überblick
labor
Cou@@
neighbouring
liable
Dass
leich@@
Herz
selber
adds
poses
Minute
fers
acknowledge
Wellness
Ama@@
ecological
chern
Wandel
akzep@@
Kategorien
bewältigen
Tel
Kapital
cious
eur@@
wage
adding
belong
pap@@
Intel@@
94
Gelder
langer
räumen
5,@@
herrlichen
Up@@
gestärkt
Jugend
teaching
gelesen
Consequently
mented
Wirtschaftskrise
dlicher
low@@
genaue
gesetzlichen
ehrt
strah@@
sleep
antes
öff@@
aster
gam@@
emen
sä@@
flug@@
alu@@
engaged
Kampagne
überwinden
60@@
operated
varied
gewer@@
stunning
sichergestellt
Umweltschutz
ati
zerstört
struggle
lichsten
begins
synchron@@
Herbst
Span@@
Öl
Licht@@
efficiently
Residence
gegenwärtige
einf@@
erklär@@
BSE
Andererseits
festi@@
folge
kus@@
Autobahn
camp
ats@@
hü@@
gkeiten
stuff
lü@@
schä@@
Richard
three-@@
loser
án@@
sible
meets
Zürich
ergänzt
CDs
eria
Maschinen@@
ziger
Bestimmung
liert
Länge
äm@@
unmittelbarer
Zahlung
kehr@@
Bord
eo
heading
Cel@@
ø@@
tain@@
struc@@
rad
genes
froh
Vereinfachung
twice
Auftrags@@
past@@
Protocol
Sky@@
proportion
integrierten
immer@@
Florenz
antly
Instruments
Es@@
cla@@
Cab@@
cin@@
journ@@
behält
Potenzial
Steuerung
itable
kennt
hes
Ke@@
mile
eigener
riding
Micro@@
stärkere
Debatten
CD-@@
wort
Bour@@
surprise
recording
eurozone
makers
combines
speciali@@
glo@@
78
teste
iel
Dokumenten
Mod@@
ř@@
Using
76
eingesch@@
graphics
OK
gleichermaßen
Dro@@
sufficiently
Bed
mistake
Hohe
aring
Text@@
zeichnungen
Montag
Kern
ctions
kontrolliert
Belgian
ent-@@
M.
ial
bs@@
frem@@
program@@
Autos
pillar
Kaffee
prop@@
lieben
Freund
lier
DC
Vir@@
Resolution
zukommen
Miet@@
CN@@
visual
Tsch@@
pace
Pot@@
rechtzeitig
о
Wesentlichen
territorial
rad@@
Nat@@
Š@@
DR@@
Berichterstatters
Erhaltung
langfristigen
nar@@
kilometres
19th
heads
Satelli@@
urgently
Ve@@
Beseitigung
Sound
Society
phenomenon
Saf@@
seats
angemessenen
altung
zige
wendet
warning
push
sophisticated
Verein@@
Chem@@
codes
rolle
Have
occurred
BC
n-@@
ho
Gau@@
Ven@@
scientists
cit@@
Presse
anzubieten
fro@@
c-@@
spite
relates
ht
legitim@@
EU-Mitgliedstaaten
acqu@@
shuttle
yard
stration
meister
klassi@@
diplomatic
iling
Suites
negativen
medicine
arising
such@@
logical
schnit@@
candidates
shel@@
2nd
PA
Saison
convenience
native
Renn@@
Tür
bedeutenden
Polizei@@
Zw@@
Kandidaten
Phili@@
Schn@@
Email
Science
kanische
derzeitige
gia
binden
inspired
Oberfläche
Detail
Black@@
typischen
garage
erzeugen
ean
zia
Conc@@
mag@@
feet
Schulden
unentgeltlich
specialists
effektive
ktor
Mechanismen
Afri@@
Parlamente
Projekts
lis
zü@@
College
stammen
Straßburg
acquired
Bedien@@
causing
damages
pot@@
lien
Gewinn@@
spä@@
execution
Rh@@
virtually
bly
innov@@
meals
illa
UNO
Benutzung
besucht
sorge
seconds
anzeigen
FA@@
iens
records
zwingen
mögen
Lit@@
gesam@@
Ombudsman
appropriations
ahn
concert
Pension
inn
upgrade
Archi@@
Luxemburg
schö@@
lenken
ín
Ok@@
sit@@
stem
angenehmen
bot
sand@@
Area
uniform
var@@
za@@
recognize
oldest
Children
habit@@
intends
ght@@
ici@@
fällig
Versorgung
constructed
Dingen
в
Bereits
reis@@
vi
rechtlich
honour
projec@@
gültig
Lux@@
Bir@@
betrieb
geographical
choices
highlighted
integrate
Personen@@
Appartements
vis
fing
boost
ı@@
Explorer
Berge
Lastly
Professional
rum@@
Verkehr@@
Bedürfnissen
Further
marine
ão
erstaun@@
operator
pick
resulted
bility
Kopenhagen
GE
stoßen
succeeded
engage
construc@@
rable
oring
ily
74
polis
sichtlich
iges
Tonnen
bewahren
untersuchen
ländliche
angenehm
eld
außen
essentially
EV@@
ases
aktuell
producer
Direkt@@
wartet
Religion
Patent@@
pas
Islam@@
hidden
referring
entscheidenden
consequence
91
strictly
free@@
Fluss
gradually
Innovationen
dres@@
г@@
coherent
checked
Mart@@
vention
Bol@@
boats
tile
prin@@
urlaub
knapp
Audi@@
errichtet
Sobald
hierzu
Gem@@
Leit@@
realer
kümmern
Bom@@
konkret
ua
Av@@
SAP
Sierra
wertung
350
dauer
bi
Eur@@
classical
zy
kontrolli@@
champ@@
Parti@@
Recht@@
Mass@@
tö@@
manual
CL@@
500@@
widespread
hou@@
gehörigen
radik@@
Augenblick
--@@
vorgestellt
IV@@
Nikon
Stamm@@
Saddam
Ägypten
reporting
Eng@@
Sonntag
я@@
losigkeit
beinhalten
narrow
entsp@@
4-star
than@@
affects
explanation
incorporated
berechnet
restri@@
ologisch
müsste
auffordern
Hinweise
bü@@
Lesen
vos
verse
denjenigen
passing
Hum@@
bay
sitzen
Regulierung
finanzieren
tant
Kle@@
Häuser
Imp@@
lian
pflich@@
Differ@@
Tauch@@
Hän@@
überlassen
Senkung
taining
zel@@
Dialogs
troops
ament
Sup@@
aviation
Drittel
81
Ty@@
Nokia
spezialisiert
Staats-
Common
eless
schw@@
grünen
lla
Car
favourable
praktischen
maxim@@
colors
atom@@
forth
gefähr@@
Fläche
revenue
produkten
prote@@
Intern@@
angeb@@
ington
teachers
rot@@
erklärte
Schreiben
fot@@
Besuchen
human@@
Zusammenhalt
gross
tnissen
hop
klasse
Vie@@
Small
Ausbildungs@@
snow
gekennzeichnet
kämp@@
Stock@@
dation
Warcraft
gastronom@@
var
soil
Asi@@
ausgewählt
wechseln
Hindernisse
stories
alcohol
contrac@@
kolle@@
sement
victory
EE@@
Govern@@
wu@@
Anmeldung
agents
Porto
projekt
befasst
airports
Nachhaltigkeit
anne
freund@@
Käufer
beer
vergleich@@
UNESCO
Vertretern
bungen
ray
manu@@
fted
diff@@
geschickt
Ansprüche
Mechanismus
Höchst@@
girls
grund@@
bett
Hard@@
Module
ehmer
constitu@@
Al
Premierminister
cas
renoviert
Beachtung
Studi@@
Eth@@
exact
ements
weak@@
Sicherheitspolitik
stick
Rech@@
¼
llen
considers
Todesstrafe
outs
fes
feh@@
Jugendlichen
anwen@@
repair
sent@@
participating
Pflanzen
Macht@@
Mandat
wes@@
ached
Ergebnissen
ault
kra@@
verfahrens
lica
See@@
Department
beschrän@@
Erst@@
Urteil
Pacific
Line
verkehr@@
Danish
akte
GR@@
encouraged
Cooperation
olive
amp
lit@@
surprised
Übertragung
ires
Brun@@
weltweite
gelangt
Ay@@
mouse
stechnik
Glauben
programmen
atur@@
sexu@@
Widerstand
prosec@@
betrieb@@
hole
geführte
gehandelt
Todes@@
capabilities
stayed
AP
diesbezüglich
domin@@
CR@@
älteren
wesentlicher
specialized
willingness
gänge
teen
Fron@@
west@@
müssten
keys
versammlung
attend
cer
beeinflussen
eventuell
Truppen
chinesische
Poker@@
observed
contextual
porting
organiz@@
übersch@@
ve-@@
Wirksamkeit
Investment
Nor
Constitutional
hills
aktu@@
Helsinki
achievement
günstige
Team@@
Airlines
sied@@
25.
märkten
world-@@
Entfernung
Vice-President
compar@@
prison
Ersatz@@
clock
Symbol
gefährdet
ost@@
broken
vable
DER
utmost
sidenten
Authority
Apart
Marken@@
rank
mäßige
Journalisten
propor@@
Scho@@
Chile
Jer@@
begrün@@
tut@@
bringung
europäisches
setzte
Anim@@
Finnland
hungen
Aktien@@
prisoners
wander@@
zweifel@@
festzustellen
seeks
booked
tigkeiten
gewählten
funktion
Urlaubs@@
Civil
Betreuung
verletzt
Oliven@@
vent
Mexiko
regulated
fiziert
conferences
geblieben
Erlebnis
Louis
insist
Versammlung
Eff@@
know-how
promises
ever@@
Direc@@
thri@@
chter@@
ober@@
wooden
Gewal@@
Datum
opens
bild@@
sterben
endet
clarify
preserve
Holz
A.@@
enne
wonder@@
Netzwerk@@
roof
IK@@
Plug@@
oftmals
Weil
accidents
crises
shore
Ner@@
liger
dest
composition
developers
Inflation
armen
Sound@@
associations
scheduled
arm
Terms
Fehl@@
Cle@@
wahr
akes
ood
Präsenz
UR
sequ@@
jedenfalls
87
angewandt
neun
Nam@@
benutz@@
professionelle
correc@@
abend
spät
moderni@@
Ly@@
Är@@
sauber@@
ples
BS@@
Billi@@
Fur@@
Visi@@
esc@@
omp@@
ärer
illegale
momentan
theore@@
Arab@@
Dokumentation
Vic@@
ices
Einen
Finde
alongside
theatre
porte@@
Mädchen
Seg@@
By@@
roll
kehren
Räume
convention
geregelt
ý
iring
percentage
organis@@
Jerusalem
Franc@@
indoor
Strände
alitäten
variable
क@@
homo@@
by-@@
Portal
soeben
permission
xis
längst
daten@@
Kohäsionspolitik
Fire@@
frequ@@
reise
Access
bru@@
stätigkeit
ergänzen
Gemeinschaften
2015
infolge
Schu@@
crew
quotas
Wohnzimmer
Dresden
evident
Travel
edited
Tabak@@
HD@@
schwierige
HD
dist@@
olo
catch
purely
bewer@@
hopes
recogn@@
mentation
Ken@@
harmful
studi@@
bun@@
geliefert
regelung
convergence
airlines
wirkliche
Rock
Ky@@
nehmer
Modernisierung
navigation
IM
stung
verwal@@
ansehen
Ratschlag
6,@@
oli
schwere
&apos;m
festlegen
Cock@@
QU@@
Verwirklichung
palästinensischen
contradi@@
finanzi@@
Aufzug
wur@@
Samstag
Vorstellungen
Frauen@@
Stell@@
Lü@@
clim@@
branche
dire@@
anzunehmen
charakter@@
Spitze
Haar@@
Basel
gesetz
Regional@@
gon
seemed
Speicher@@
Kie@@
dispute
eries
incentives
Vertrag@@
Lis@@
discount
hinweg
Zuge
Versicherungs@@
uring
Jedoch
regierung
charm
ept
bewerten
stake
vierte
loading
Wild@@
Ticket
compulsory
Andalu@@
Florence
Spezialitäten
calm
B5-0@@
acks
Energieeffizienz
ě@@
DV@@
ENT
ential
agne
199@@
alisierte
Doppelzimmer
string
Wirtschaftspolitik
wäl@@
läu@@
clicking
ned
implications
objec@@
communicate
layout
umin@@
aufzubauen
chron@@
accounting
humanitären
suff@@
kräf@@
Rin@@
Muslim
radical
ansprechen
20th
jk
Betriebe
denkt
Übrigen
Operation
chtigkeit
relationships
encies
onal
netz
governing
Cuba
hur@@
kle@@
Verzeichnis
minor
sektors
ultimate
adventure
Errichtung
ao
tious
Schulden@@
Burma
superb
fan
Weiterentwicklung
hervorragend
expand
distur@@
geschlossenen
cky
organise
plug@@
entliche
Riviera
Chairman
elli
arts
ünd@@
HU
hinzu
istisch
BM@@
wächst
expense
Feu@@
array
enjoys
pilot
öl
Bildern
transfers
12.00
Product
Michel
Jesus
bearing
thaus
ened
Treaties
hä@@
Stiftung
decre@@
forming
power@@
unch
afrikanischen
Typ
verringert
arians
Fei@@
Unterkünfte
initially
meaningfully
ehemalige
offenbar
ex
Milch@@
Philosophie
stam@@
mische
sien
tigungs@@
Verbrau@@
Leipzig
ali
strukturen
itation
Argumente
Amts@@
medieval
Nigeria
believed
.net
Jon@@
multilateral
tains
Viel@@
bahn@@
Außen-
Search
wife
Gay
Software-@@
dunk@@
enger
approaches
Traditionen
krimin@@
Hit@@
м
Herr@@
Edinburgh
Flughäfen
zahlungen
Volkswirtschaften
staying
enthalt
tagen
closure
statten
Zwar
Bücher
bek@@
italienische
stag
manchen
dateien
83
versteht
Zypern
entfernen
stische
lement
gast@@
iness
technique
Schwellen@@
Werden
Rand@@
richti@@
nei@@
äumen
Auflösung
Joint
Connec@@
IP-@@
maybe
Listings
Schüler
Werten
Verteidigungs@@
stry
berühmte
tliches
smooth
Wohnungen
Inn@@
Die@@
Three
ry@@
Account
digitale
enforcement
Jac@@
volles
sively
kür@@
Engineering
tags
Bö@@
Wähler
magn@@
wind@@
Meg@@
Umweltfragen
busy
studied
erh@@
remarkable
poker
Grundlagen
digungen
Sektors
Arbeitnehmern
sprechend
Syria
Jewish
describe
retain
Ausarbeitung
Armen@@
Big
Akteure
CEO
shortly
woo@@
ücken
mern
mel
eland
Schei@@
MP3
Hen@@
Objekte
Annehmlichkeiten
addressing
Az@@
entieren
kontextuellen
fair@@
Adri@@
Nich@@
concentration
Wissenschaftler
Fundamental
mehrfach
entdeckst
Vermittlungs@@
employed
Firefox
arium
Human@@
SQL
Safe
Samsung
entstand
Pak@@
chi
alists
elev@@
permit
eliminate
Salz@@
Krieges
bought
Valencia
audience
endor@@
Read
Peti@@
Glei@@
verwendeten
überzeu@@
garanti@@
lio
saf@@
Kit@@
blan@@
Nord
Wiederaufbau
Orten
Fahrer
Danach
alter@@
geograph@@
repeated
Performance
Jean-@@
kostenlose
portra@@
poorest
gäste
grammatically
ingredients
instru@@
schemes
eingebracht
zo
Fabri@@
contextually
1.5
Filme
selec@@
1988
netz@@
hinzufugen
partic@@
geniessen
Arena
assigned
Free@@
enormen
NE@@
amended
mon
Work@@
qui
sozi@@
alisi@@
Ehr@@
Allah
kontextuell
chts@@
negotiation
tender
erteilt
grammatisch
buses
appe@@
Einer
ж@@
exposed
180
collabor@@
verw@@
Make
Tieren
exec@@
Deutschlands
Verbraucherschutz
gy@@
medicines
Gesetzes@@
constitutes
Jung@@
ados
dial
verhältnis
eur
ype
Bla@@
Himmel
chairman
Schlusselwort
flat@@
vorzunehmen
Schlusselphrase
Full
verbindung
Cir@@
nutzt
cop@@
ć
tags@@
aufgezahlt
gesellschaftlichen
Hardware
beseitigen
odi@@
Internetzugang
tali@@
contra@@
fehlen
nehme
lish
chairs
Appartement
Entwickler
vorliegen
iss@@
Sieg
ship@@
anwenden
werks
quellen
beu@@
maximal
Ausbau
Ech@@
ausüben
füllt
caf@@
geschäft
campaigns
hinaus@@
H-@@
certified
Dänemark
prize
ank
extending
desto
Nehmen
ized
neo@@
berger
aufbauen
Aussage
Strah@@
stätten
gab@@
Frequ@@
rö@@
chapter
Palma
hinzu@@
ausser@@
arranged
vorgelegten
gering@@
interne
Gibt
Zwischen
translated
milit@@
cted
poll@@
reagiert
managers
evol@@
Maj@@
Denken
Wit@@
Serbien
pop@@
legitimacy
Kommun@@
dor
stur@@
terror@@
verständlich
verl@@
planen
Lernen
Go
no-@@
fizieren
beantwortet
überwachen
beln
Kh@@
financed
dumping
appro@@
newsletter
ändert
aking
änder
sad
trained
ope
Wasch@@
Pir@@
shor@@
Ausweitung
boasts
Together
bedürf@@
ück@@
Km
halt@@
drin@@
asset
til
diving
Russlands
grund
ierungen
Wall
Web-@@
appointment
professionellen
ruhige
glie@@
Sem@@
Max
TE@@
Übergang
110
ratification
wissen@@
Zeu@@
Plenar@@
städ@@
CA
lass
Subject
desirable
gemeinsames
fewer
gebühr@@
Mängel
Il@@
Metro
Katalog
neighbours
completion
residential
folder
südlichen
eingeleitet
künst@@
Sowohl
ech@@
eien
umgehen
Times
stens
gesucht
baus
ede
Moder@@
paths
tu
PAR@@
NICHT
Abfall@@
Start@@
loaded
Vordergrund
weilen
31.
sizes
height
autom@@
Burg
advis@@
Universitäten
ownership
ungst@@
bevölkerung
prohi@@
Wand@@
hotel@@
günstigen
teuer
bearbeiten
communic@@
Transfer
Vorsitzenden
Satz
Gruppen@@
gewidmet
frequency
urgency
new@@
Modul
sorry
ji@@
Program@@
preferred
electrical
gewöhnlich
beach@@
suche
anen
Erwachsene
suggests
Ruf
Moscow
BA
IWF
examination
fresh@@
Bak@@
alisten
Haf@@
Beru@@
Wednesday
Lor@@
Slovakia
definieren
Besitz
hochwertigen
lock@@
kräften
Green@@
verstehe
Cit@@
hinzugefügt
tness
Main@@
gels
gerechte
becken
richtungen
segment
Real@@
zeichnete
moments
bla@@
inadequate
Bestätigung
enjoying
ständi@@
solved
innovativen
Bezeichnung
Empire
IX
wand
logo
references
Unions@@
deserves
gerung
Stur@@
HIV
Souveränität
GA
zugs@@
collapse
empty
24.
satzes
trags@@
hist@@
Siemens
wick@@
Gegner
fascinating
enhan@@
SP
Einsatz@@
mäßigen
ped
Erfolge
östlichen
listening
mixed
elegante
thumbnail
iron
Bestell@@
Series
gegebenenfalls
exemp@@
landwirtschaftlichen
Mittelmeer@@
vez
appar@@
staat@@
ury
League
Sens@@
Spaziergang
herstellen
nächster
iPod
keineswegs
Export@@
whereby
Arch@@
guar@@
erhoben
Wen@@
eben@@
üblichen
Regen@@
il-@@
cker@@
Eines
begun
broad@@
ref@@
Kooperations@@
bekann@@
underlying
Hof
betre@@
K-@@
fire@@
Anonymous
Cr@@
erkunden
travellers
proz@@
Rechner
LAN@@
Vereinigte
Immobilien
sely
Zweiten
Genau
foundations
freier
Können
tivity
D.
Rit@@
full-@@
os@@
Lohn@@
divi@@
conciliation
pper
Gottes
ologischer
prefer@@
signing
vacc@@
behand@@
gestiegen
besonderes
Sab@@
Niederlande
repeatedly
utt@@
isse
achtet
escape
klin@@
steller
Inc
84
zin@@
zusehen
Edi@@
secondary
Boot
Insgesamt
compete
journalists
sional
erstes
occupation
dramatic
Argument
ausgehen
Intergovernmental
kün@@
bonds
Café
RS@@
aden@@
suited
gefährlich
unnecessary
Atlan@@
ökologischen
Ehre
Employment
Werkzeug
vollem
ware@@
Besonder@@
sozial@@
Blair
hilfreich
herzustellen
Oli@@
cken@@
pic@@
reads
html
Stri@@
saal
lor@@
Existenz
entsch@@
LIN@@
religi@@
parlamentarischen
ms@@
300@@
ille
stärksten
partial
Revision
expanded
Wind
ador
bud@@
hundert
pft
berichtet
Klassi@@
ansch@@
Monte
ME
PM
Verkaufs@@
evi@@
bigger
loses
welle
cancellation
ktiv@@
zent@@
würdigen
cookies
130
considerations
Anbetracht
kurse
veröffentlichen
Patri@@
angehen
Nichtraucherzimmer
gige
offiziell
economically
umfassen
d.@@
Erzeu@@
ausländischen
intensiv
asp@@
kas
commit
sever@@
ids
Physi@@
Several
gehend
observe
Republi@@
erend
enheit
Ausblick
én@@
Ingenie@@
tia
ign
erleb@@
splendid
Cop@@
losing
hence
Prozeß
Ministry
natur@@
Saint-@@
violation
effizienter
Glück@@
Sekunden
größter
1986
Effekt
zahlt
comparable
gebene
Fisheries
Quell@@
TA
Fassung
Kommentare
Modus
forwar@@
instrumente
bug
höchst
ы@@
gesetzten
cope
verbreitet
mass@@
OLAF
kit@@
tax@@
principal
beteiligten
Nizza
vary
konsequent
enting
euer
gegenüber@@
Internal
erwiesen
Aktu@@
Publikum
pec@@
Ablauf
Montenegro
funden
löschen
Entschlossenheit
characteristic
Konvent
Ran@@
timetable
schwedischen
sport@@
Anmerkungen
instantly
Kau@@
baby
thorough
Düsseldorf
Sun
Swi@@
elektronische
Prof.
ehm@@
coastal
maj@@
vorsch@@
Leben@@
Gas
enburg
representing
Kopf@@
auswählen
incorpor@@
gemütliche
Demokraten
liz@@
lively
false
zusetzen
Stan@@
genuinely
regionen
ahnen
withdraw
designer
examined
Corporation
Migration
Antri@@
berich@@
Over@@
Nation
prozeß
sessions
Chief
reibungen
Edel@@
debating
Lom@@
generell
Cl@@
günstig
Gebühren
Kompetenzen
carte
Filter
erheben
existieren
angle
tat
band@@
lans
Gaz@@
Verbrauchern
τ@@
gefühl
paket
stein@@
Arti@@
smart
KDE
thro@@
bon
Erreichung
gelegene
Woh@@
Quark
informal
lette
gift
fat@@
anten@@
Schau@@
nov@@
purchased
optional
ción
Original@@
Rechnungs@@
Entwick@@
textile
diver@@
genau@@
möglichkeit
bürokrati@@
Aspekten
Lot@@
tätigen
Know-how
Marco
Patten
betriebe
mung
Hör@@
ad-@@
g.
bedroht
Bekann@@
integrierte
izing
thei@@
Prag
standes
seiten
Modern
openness
grenzüberschreitenden
Tun@@
schriftliche
Bay@@
Level
Ausrüstung
Pflanzen@@
slopes
blick
ago@@
widmen
loans
Alps
häl@@
vertraut
fare
featuring
high@@
delete
autumn
Coun@@
по@@
Ratifizierung
Event
speeches
seln
blind
sample
Heimat
Vermögens@@
LAN
hard@@
Bestellungen
eding
turns
foremost
intentions
linge
falling
tolerance
schar@@
Palette
kter
over-@@
Lehrer
Sachver@@
ly-@@
schung
TV@@
kleinere
perform@@
gewicht
soul
Storage
exist@@
bewus@@
apparent
adult
Bü@@
beispiel@@
spectrum
Stahl@@
civili@@
Bevor
quest
Chin@@
pay@@
bruch
gestatten
bewußt
Inv@@
dacht
Updates
ghter
olle
Tickets
tigte
geous
Solar@@
hohes
alternatives
Rennen
situ@@
Risiko@@
fft
sichert
Ima@@
Wett@@
schwi@@
früh
affili@@
horse
dition
wehr@@
arabischen
1945
Clubs
exten@@
Autor
accessories
papers
genauer
fell
kostenlosen
hafter
wel
ktiv
bewegt
subsequently
vac@@
weichen
simultaneously
Venedig
Source
Ideal
Brücke
erfol@@
zeigte
strike
ideally
allo
ris
Ashton
desktop
ethical
Sz@@
rated
sunny
Behörde
moreover
pol
destinations
förderung
complaints
Laden
accuracy
Abteilung
codecision
W-@@
arily
History
wai@@
ket
Morocco
beibehalten
erwerben
Spor@@
langem
Keine
Super
viewed
lights
manufactured
ähnlichen
dend
afford
ffs
überrascht
teilungen
Vorrang
destroy
affordable
verla@@
Greens
finanzierung
branch
posts
atri@@
onic
agen
logic
nich@@
Rü@@
Konvention
22.
calendar
erie
Australien
Val
respects
vertrau@@
BER@@
counts
Schad@@
Weine
Steigerung
Statistiken
tiere
smoking
maßen
expenses
Dur@@
Slowakei
Gemeinden
Press
vermittelt
viewing
Soldaten
zugeben
hielt
EW@@
Durchsetzung
mechanical
devoted
terrible
ér@@
getreten
bits
Uns
umgehend
Festplatte
falsche
URL
artige
measurement
öffentlicher
hang
earn
unterschiedlicher
Weiß@@
DS
7,@@
Klarheit
position@@
sitz@@
alls
ckets
excursions
key@@
spots
emo@@
gü@@
solch
Schil@@
WTO-@@
Wichtigkeit
на@@
Betrieb@@
Run@@
Automati@@
üh@@
chemische
num@@
ior
arrangement
derart
і@@
celeb@@
α@@
Häfen
Arts
Ausrichtung
guaranteeing
cost-@@
zero
accordingly
Ursache
Schicksal
shing
der-@@
funktionier@@
venture
funktionen
fahrzeuge
Jahr@@
zweitens
erkennt
Kenntnisse
here@@
Für@@
survey
attra@@
grand
stechn@@
Schulz
Kein
erteilen
Village
drop@@
79
zweiter
behauptet
Haiti
ña
som@@
ea
wachsende
Caf@@
gon@@
clarity
Maß@@
fter
elem@@
importantly
ा@@
Youth
verurteilen
Garantien
bewegung
vocational
Dynamik
gebenen
xel
sid@@
Formul@@
Growth
nä@@
tips
Otherwise
aben
Palestinians
bak@@
1987
condemn
LT
acceler@@
composed
1985
anzuwenden
icht
gues
tribute
Gö@@
Werkzeuge
Vorgehensweise
Lager
hochwer@@
authors
plate
atik
Reser@@
schwan@@
äden
geringen
custom
continuously
flexibel
prob@@
dal@@
jährlichen
answered
Ach@@
Sports
Section
Library
motorway
Export
histor@@
mur@@
Audio
ph
kombiniert
inspection
Seele
schalten
spanische
Apart@@
verbreit@@
relief
ichten
reibungs@@
Volkspartei
Plätze
preserved
tragedy
residents
Nordic
geren
jointly
frü@@
Lap@@
dien@@
Tak@@
forgotten
inclusive
transaction
Program
Wie@@
FI
Mittelmeer
Herkunfts@@
ij@@
Schle@@
ancy
angebote
herrsch@@
refused
revised
alled
hell
ke-@@
nahme@@
centers
Dep@@
terminal
maß@@
tragic
aktualisiert
lüsse
Kommissionspräsident
Gü@@
gebäude
üsse
zierten
Hände
mäß@@
Distribution
Solana
Spre@@
bewertet
Fleisch
komplexe
Lateinamerika
violent
Bud@@
dieren
e-
äder
Immer
Bergen
verursachen
Ferienwohnungen
sender
gerich@@
Fortsetzung
beabsichtigt
afraid
Menschheit
v.
scar@@
oppose
vertritt
Versand@@
mand@@
buying
pain
Mir@@
fifth
noon
wirklichen
beweisen
Diesen
Felder
ool
urg@@
SDL
Entwicklungshilfe
Partnership
taus@@
rene@@
anzupassen
Strom
gehörige
GO
William
veran@@
umfangreichen
Betreiber
blicken
entran@@
lassung
FC
Garten@@
jun@@
broader
Zuverlässigkeit
-und
stopped
Versprechen
certification
inneren
Weltkrieg
width
onia
Bun@@
margin@@
befürworten
iles
behavior
instruc@@
Mobil@@
herausge@@
ен@@
orientation
jurisdiction
CO
gemütlichen
Tief@@
ausgestattete
Ereignis
Brü@@
ava
Inhalten
erheblichen
ax@@
ð@@
Wünschen
terin
argue
erarbeitet
biom@@
Kürze
Schreib@@
Aussagen
Rub@@
doubts
ep
fünf@@
ceiling
eure
onds
Verwal@@
alistischen
Francisco
Water
Zimmerbeschreibung
Halle
arbeitungs@@
fix@@
deadline
deci@@
GAP
consum@@
eriert
potenti@@
assurance
äuß@@
gradu@@
ktor@@
Reinigung
fragt
Weiterhin
symboli@@
technisch
überra@@
promoted
Service@@
Kredi@@
änge
Copyright
gan
aush@@
traum@@
igungen
könne
komplexen
External
Docum@@
ku
Ry@@
Tech
begegnen
Heads
SK
oli@@
relaxed
vie@@
Einzelheiten
niedrigen
Offenheit
Alternativen
typisch
commerce
stattgefunden
Kennzeichnung
gingen
treas@@
Haushalts
Gui@@
E-Mail-Adresse
Jean
nobody
Betrach@@
23.
Problematik
Southern
gepf@@
finds
fertigung
harmonisi@@
Ass@@
depth
brands
zentraler
swi@@
Stau@@
stet
insul@@
sculp@@
zustande
Comple@@
xe
geehrte
honest
Mischung
¶
öse
Jag@@
tower
add@@
präzise
ensu@@
ни@@
calcul@@
Seiten@@
engen
chat
affecting
derungen
publish
kit
Sex@@
grenze
formular
yers
schutzes
po
ständiger
arri@@
respektieren
KG
perpet@@
arbeiteten
focuses
terrasse
specially
Gesicht
klären
von@@
sake
angekündigt
Südo@@
nötigen
t.@@
Lieferanten
strebt
Zucker@@
tropical
deutliche
viable
vere
fortsetzen
auswirken
fam@@
focusing
enor@@
Samm@@
holder
short-term
uneingeschränkt
ample
Betracht
Rechn@@
Avi@@
innere
Nachdruck
kunde
ре@@
NEW
erleichtert
schnitt
Hans
ester@@
hem@@
aled
verpflich@@
dog
Bauern@@
schn@@
conversion
stering
Kul@@
belongs
davor
eleganten
Commerce
regionaler
Beschränkungen
Dokument@@
electoral
Jan
Netze
fungen
Labour
Bewusstsein
Distri@@
vals
EG-@@
General@@
tradition@@
Wissen@@
SL
Finnish
gebung
removal
modify
California
signals
pensions
knew
exhi@@
nel
Besu@@
quantity
terung
renewed
standardi@@
gemessen
attended
Zurich
nern
healthcare
gestartet
tone
rufe
mir@@
Olymp@@
tung@@
medizinische
jüngste
spüren
Glob@@
arrange
valu@@
wheel
sogenannte
einiges
sul@@
ander
vertrauen
up-to-date
essing
russische
Schö@@
visits
stige
s-
Phil@@
vorliegt
derselben
éri@@
stren@@
lining
vermutlich
Wich@@
dimensions
tempor@@
wirft
gerungen
Zeitplan
Gebir@@
dian
stands@@
univers@@
teln
hood
dien
refuse
ausführ@@
Verheugen
Monte@@
cir@@
fin
stressed
Szen@@
recall
ystem
issen
ennen
publishing
erische
chose
rub@@
Bauern
tigten
küste
Fans
Gute
Minister@@
integrity
prospect
Zielsetzungen
hn@@
‚
cameras
österreichischen
endgültige
installations
kurzer
progressive
schedule
pack
rev@@
wise
Speci@@
cio
automotive
Ander@@
Ministerpräsident
stops
alise
convert
übt
Eröffnung
transitional
elen
edy
fts
gieren
Sto@@
Empfang
Wahrung
sibility
closing
organize
judge
advise
Original
Ford
yo
Contact
wunderschöne
faire
Net
realisiert
empfängt
Berlin@@
aching
faszini@@
Baum@@
winner
getrennt
Million
whatsoever
missed
ruppe
Minderheit
Übersicht
expressly
privileged
provo@@
monuments
nie@@
30-@@
basically
stil
redu@@
FR@@
evalu@@
Block@@
miß@@
Protokolls
Südafrika
pair
angenehme
baut
afri@@
Hä@@
Derzeit
declare
researchers
deserve
officially
Übernahme
adjustment
painting
Schnell@@
politiken
Past@@
bag
iet
Wäh@@
zimmern
mini
Kün@@
institution@@
ful@@
tatsächlichen
lei
environmentally
leistet
Ausnahmen
Heimat@@
catalogue
whe@@
fairen
Ski
erweisen
Beglei@@
verbindungen
plane
Galileo
tie
Sing@@
Freizeit@@
schir@@
enes
Hafen@@
lebenden
Cin@@
Lebensmittelsicherheit
GPS
bird
å
verwiesen
typically
gau
moderner
Massage
rela@@
Funktion@@
Гј@@
Nachmittag
Schie@@
od
Betrifft
Schmi@@
nicht-@@
ground@@
Georgien
Cast@@
icht@@
1970
Gy@@
Meister@@
presidential
ranging
Alters@@
herum
GM@@
Alban@@
posted
unterbrochen
Č@@
Representative
drives
hing
erwähnten
Tarifa
Syrien
trains
less@@
delays
certificate
Ms
Kohlen@@
fit@@
wol@@
Produktivität
authorized
erforderliche
SS
freu@@
Order
ution
rational
cles
exhibitions
occupied
credible
Brau@@
Cologne
ION@@
trenn@@
drängen
Olympic
anerkennen
Erarbeitung
erstreckt
passion
neighbourhood
EIB
Bevölkerungs@@
begründet
geringer
technischer
dienstleistungen
soldiers
uncertainty
symp@@
genießt
fa
Taten
Jahre@@
formuliert
verzichten
Händen
Game
GUE
observation
promising
kompliziert
stö@@
bili@@
tica
ierungs@@
Kreuz@@
at-@@
populations
Chancengleichheit
Großen
lossen
Ce@@
dity
brauch
gerechnet
Landwirtschafts@@
isierung
verz@@
interven@@
arrest
komfortablen
feder@@
mines
einst
Verfahrens@@
kö@@
newspaper
dring@@
Illu@@
olen
tion-@@
kunden@@
anpassen
whenever
movies
Automobil@@
May@@
zugestimmt
interessanten
sisch
holi@@
Laut
absurd
Imm@@
bezeichnen
begünsti@@
vorsieht
red@@
Wat@@
verstän@@
Provi@@
promenade
geeigneten
Zerstörung
bedro@@
Drogen
duration
mechanismen
precision
ops
Fischler
gla@@
pattern
yang
ignore
sovereign
icon
mig@@
gn
freight
religiösen
lion
verabschieden
ateg@@
actor
gebühren
ursprüngliche
Engli@@
tension
Augen@@
zurzeit
beneficial
Herkunft
achievements
virtu@@
felder
innen@@
Yo@@
chers
Ref
Bureau
tariat
ehe
Milan
kriterien
klimati@@
proximity
ро@@
beef
emerged
frequent
vereint
musikali@@
ausländische
Select
Force
liter@@
alisierungs@@
neutral
zip
lös@@
Ann@@
sandy
Inclu@@
Rückgang
mmen
Kurz
surveillance
gelernt
leichte
Tradi@@
Abbau
Clar@@
liegende
Bit@@
erarbeiten
releases
übermitteln
aufnahme
aks
patri@@
Fang@@
trouble
tigh@@
Bürokratie
Set@@
Everything
duplic@@
Solutions
Language
IBM
nem
Aufhebung
explicitly
Digital@@
unusual
herrschen
weit@@
ratio
bles
Prize
dress
W.
Gewinn
schenken
emphasi@@
ökonomische
arbeiter
Defence
öffnet
lac@@
habt
ento
sailing
IA@@
cross-@@
Privatsphäre
ür
SU@@
Fisch
literature
feedback
archive
Co
eröffnen
planung
hire
ller
precious
throw
employers
ingu@@
abgesehen
gewünschte
Index
ц@@
dieselben
persi@@
Until
sensor
handels@@
Tari@@
Berei@@
erien
machinery
Zunahme
tausend
err@@
beinahe
verarbeitet
hört
sicherer
diagno@@
plätzen
Nation@@
suspended
Schrift@@
här@@
prestigious
fitted
book@@
nur@@
Fremden@@
vir@@
tels
wahre
Radi@@
prinzip
Mittwoch
gehabt
institute
Nichtraucherzonen
Wellness@@
knü@@
marktes
parameter
Verfahrens
streben
Lun@@
abe
distinction
fuhren
haus@@
Zus@@
Liberalen
Minibar
pil@@
zierte
140
cancelled
gehe
bestände
anforderungen
decor@@
marking
logistics
krieg
ony@@
meldung
ecks
granting
entlich
facilit@@
Presse@@
Beijing
Audio@@
GP
identification
Wiederherstellung
retail
läge
tner
tech
Verordnungen
kritischen
kohär@@
obligator@@
medizinischen
400@@
Ltd
Tabelle
flying
Amerikas
zeichneten
Photo@@
Ros@@
Terroristen
Klimawandels
läufe
Gut
concerts
angenommenen
verschaffen
drückt
compla@@
bac@@
kredi@@
maps
Sav@@
Det@@
esta
Strasse
zugelassen
postal
xed
mechanismus
umso
taxpayers
premium
toilet
dieselbe
bab@@
eigentliche
chemicals
interactive
Experim@@
Gewi@@
deu@@
verarbeitung
Fli@@
connec@@
dahin
1,5
vermieden
debated
glichkeit
Tampere
deficits
Klin@@
schätz@@
eted
blieb
EURO@@
sized
orientierte
Mar
preparations
spektakul@@
relevanten
methode
Kreu@@
gebau@@
Anreize
announce
Argentina
fahrts@@
Sac@@
Wettbewerbs
Theorie
plant@@
Händler
But@@
territories
Sri
certainty
ruling
Erhalt
ssig
utes
feste
Proz@@
prevented
ENT@@
verteilung
Fahrzeug
äum@@
gemeinsamer
negotiated
eindeutige
Umstände
gression
höchster
Quad@@
nete
Doha
Zahn@@
mist@@
Roth@@
undertake
dasselbe
recession
geringe
subscribe
Formulierung
eting
tauchen
academic
Finanzen
Att@@
cus
integrieren
Presidents
reflection
tisches
Bridge
Third
landschaft
berührt
revealed
industriellen
Dri@@
Tower
alty
Charme
gne
schein@@
Kämp@@
besser@@
kampf
Strategi@@
zeichnung
Funktionalität
indicators
behandlung
europa
favourite
realize
aufgeführt
Governance
Begründung
rac@@
etabli@@
kleineren
alike
Kapazität
Experience
consistently
accum@@
returns
ien@@
theater
heated
esten
publications
9001
retten
Köln
befürwortet
zzo
Bett
rever@@
threatened
tigem
unde
agen@@
ratified
heutzutage
`@@
zones
Origin@@
menge
HP
verzer@@
mistakes
Schaden@@
Non-Smoking
die@@
stützt
tas
ession@@
tial
Mode
comprises
zwischen@@
secondly
Einnahmen
zione
gnisse
iner@@
Fremd@@
the-@@
Rural
admit
Angabe
Richter
elegan@@
26.
Binnen@@
ophi@@
problemlos
Schuld
untern@@
entation
berat@@
bedauerlich
hesitate
29.
esa
necessity
Scotland
deaths
VI
einstellen
Wälder
Rab@@
Kel@@
ility
bahnen
zwölf
purchasing
civilian
TM
Lul@@
generous
statisti@@
kä@@
lten
ht@@
à@@
lovers
gegenseitigen
flexi@@
Country
3rd
PPE-DE
glaubt
Verabschiedung
innovations
jahre@@
Fast
Lar@@
insufficient
Trend
Glas
ax
UNG
imported
displays
lusses
mün@@
zweck@@
Brow@@
licht@@
rey
Bahn
Consi@@
patterns
fün@@
Mot@@
rung
Nav@@
Well@@
trop@@
aufgestellt
Ausgrenzung
Phot@@
stücke
gos
eve
cali@@
XML
ë@@
lighting
führungs@@
replacement
inci@@
eled
änderungen
chtigen
En
m.
ml
Anbindung
Versuche
pak@@
architectural
abgeben
bene
downloaded
Meinungen
späteren
para@@
tioned
hunder@@
Leiter
photographs
thanking
beschäf@@
enced
telecommunications
geräum@@
s.com
black@@
Menschenrechtsverletzungen
Stufe
rischen
Objekt
catering
konfigu@@
Mobili@@
esi@@
datei
Präsentation
beruflichen
profit@@
acquisition
eth
ktiver
durchzusetzen
split
frau@@
elf
Peri@@
stim@@
bisschen
kehr
evaluate
1979
unknown
Rechnungshof
Reich
sub-@@
Vertrieb
negotiate
wärts
Dok@@
Handlungen
Ful@@
Ausgangs@@
konzep@@
Sant
Karl
wünscht
Jugendliche
Designer
Abgeordneter
Themen@@
kreis
entlichen
passieren
Logik
Dou@@
Holland
protest
Bürgerbeauftragten
spare
geld
senior
moves
Lissabon-Strategie
Verfolgung
bou@@
Daniel
Konzern@@
boxes
snow@@
airline
occurs
Gallery
defen@@
transit
fails
Dun@@
Kontra@@
Bühne
ika
dün@@
mail@@
basieren
erlangen
Wald
schönes
Kön@@
konkur@@
Mob@@
DN@@
spielte
guard
empfiehlt
beruhen
weis@@
machten
rank@@
greenhouse
indicates
Fak@@
sheets
Anzeige
tages
station@@
magic
performing
bezogen
Weltwirtschaft
ehrlich
lowing
verage
2.5
wars
PER@@
zunehmende
gratis
Innov@@
tus
claimed
terungen
Demokrati@@
nos
ature
justify
Satelliten@@
favorite
28.
harbour
alistische
fahrten
ears
dollars
Fall@@
präsen@@
wertvolle
Produktion@@
Energiever@@
editor
Anträge
Raums
Fakten
lem
Summe
bureaucracy
scre@@
argum@@
PE
erlassen
herunter@@
alp@@
Funktionieren
Schnittstelle
Wetter
schlechte
nachzu@@
Türen
platten
Excellent
Van@@
admi@@
Aufenthalts@@
boden
placing
maximale
notably
top-@@
patents
alien
robust
Ausbeutung
wies
Bewohner
gerechtfertigt
I.
J.
lassungen
gelegte
creature
polnischen
fik@@
farms
demonstrates
Linien
doppelt
comb@@
atively
brut@@
Democratic
fiel
sonstige
sofa
quelle
mandatory
authorised
Zusammensetzung
kostenfrei
endgültigen
Route
Belastung
veni@@
Bonn
umb@@
schreibt
thir@@
tle
belieb@@
Hussein
SY@@
notified
Versorgungs@@
Histor@@
angebotenen
harm
see@@
cooking
mittlere
Jav@@
veranstal@@
grü@@
supplementary
gebunden
initiated
Kuba
gewinnt
pays
DR
slowly
worrying
tise
Register
EIN@@
dual
Gewinne
borne
Getränke
BS
steuer
A4-0@@
heavily
deutsch@@
aul@@
einführen
Außenminister
leidet
downtown
lichste
Spannungen
englischen
Conditions
Fremdenverkehr
unterscheidet
beschreibt
18th
solven@@
one@@
allocation
Tam@@
Referendum
sto
Erzeugung
invo@@
goo@@
drucken
humanity
atten
wski
timely
Peace
dges
fications
rage
jeglicher
zehn@@
mers
halten@@
Metro@@
einzig
Istanbul
tec
rist@@
amente
Doma@@
Look
ues
care@@
überwacht
Wesen
antwor@@
ret@@
Industrial
Intel
whi@@
clothing
Metall@@
rechn@@
measuring
intelligence
Installations@@
organisierten
passende
geladen
schwieriger
digit@@
ausreich@@
Install@@
dauern
condi@@
Adressen
Ordner
ausreichende
Beste
High-@@
Kn@@
eignen
Ot@@
Fußball@@
eingeladen
normen
Alpen
gründete
unions
Osteuropa
Geschäften
terien
Georgi@@
abgegeben
Heil@@
qualit@@
citizenship
effizienten
Schwarz@@
iti
verliehen
beeinflusst
agrees
voters
nationals
Technologies
Chr@@
Nar@@
specify
etry
Energiequellen
Olympus
Wichtig
Gan@@
apparently
aton
Feuer@@
pho@@
Risi@@
wherever
Invest@@
Intensi@@
converted
Beurteilung
brü@@
caught
oter
sq@@
Rezession
Saal
potentially
cast@@
ök@@
anna
infl@@
dum
geräten
Spektrum
day@@
sagten
griffe
terer
9,@@
workshops
SC
zwanzig
sey
Fünf@@
twin
coal
geplanten
ablehnen
vielsei@@
Muse@@
Handy
inischen
regimes
zi
Lon@@
würdi@@
differenti@@
Fischereipolitik
copies
pling
Verlängerung
einstimmig
dominant
geachtet
künfte
wä@@
360
Left
directions
trags
Haushalte
Art.
nieren
expanding
abstra@@
Beratungen
Palästinen@@
Jacques
bedienen
premises
Insel@@
inated
austausch
Dest@@
question@@
gelingen
Deposit
Part
dargelegt
staatlicher
cancel
israelischen
OECD
alla
grat@@
Marokko
organisierte
intervene
automation
pru@@
stays
tioning
punkten
Beamten
trei@@
gang@@
investiert
Fitness@@
vereinbarten
Vers@@
Mani@@
govern@@
gesichert
District
Ergänzung
Künstler@@
r.@@
Fried@@
withdrawal
contractual
stones
craft
tranqu@@
locate
Gärten
Goo@@
stret@@
defining
schlech@@
Visa
beschleunigen
aturen
Menschenrechten
after@@
Erfol@@
Proje@@
accommodate
Rahmenbedingungen
ο@@
£
externe
jour@@
Studios
eigenem
ärmsten
horizontal
settled
ę@@
sech@@
react
Fair@@
ösen
conservation
zugute
contributing
aussehen
Galerie
kran@@
coordinate
synthe@@
räu@@
Master@@
Hung@@
älter
Choose
chief
betri@@
Ungleich@@
conventions
Israelis
einnehmen
ESS
Still@@
gestellte
tonnes
leitungen
Bli@@
applicant
verständnis
cut@@
qualifications
onien
Gebäuden
Einschränkungen
experiencing
Sus@@
unanimously
sist@@
structured
tries
Spon@@
intense
Kö@@
proje@@
mature
verstärkte
Cathedral
lux@@
BL@@
imposing
simul@@
attrac@@
betten
Traum
Spri@@
acci@@
rahmen
Mä@@
berufen
С@@
ssa
Erwägung
starkes
arom@@
Tö@@
Which
degrees
unterwegs
Eri@@
aces
powered
DP
Beschwerden
systematic
Itali@@
demokratisch
appreciated
pa
Föderation
zur@@
gebe
platforms
Iranian
tened
primi@@
License
geschafft
те@@
Mög@@
erstens
teu@@
Monti
Mengen
revolution@@
ftung
thers
technologischen
Mann@@
Her
Similarly
exposure
coverage
Amp@@
stützen
Premi@@
streng
tons
Diplom@@
Schutzes
Schmer@@
mals
bewahrt
rix
zweif@@
churches
ва@@
flug
vorschläge
Pit@@
terrorists
schein
dero@@
Unternehmer
drinking
authentic
ausgedeh@@
Ron@@
emission
Bell@@
Phänomen
breaking
Konferenzen
gebraucht
tough
BE@@
27.
procurement
Lithuania
außen@@
benannt
franzö@@
Intervention
kei@@
Technical
hosts
keeps
workshop
versehen
dnis
Malaysia
fenster
stattdessen
state-of-the-art
büro
breach
technologie
creativity
benden
ausstattung
handled
Wireless
controlling
t-
inspec@@
José
iche
Stei@@
turing
neten
eigentlichen
Verletzungen
Geben
gebnis
Aufnahmen
Produzenten
Class
IR
ys@@
silver
teilte
Leuten
nord@@
Snow@@
ffer
Hou@@
enza
vielfältigen
automatische
probieren
Einschätzung
Termin
respectively
Secretary
geni@@
fting
Medikamente
agt
Feststellung
Pflichten
CH
erischen
Tol@@
Anwesenheit
inakzeptabel
ses@@
nachhaltig
en.@@
teilzunehmen
silence
vielfäl@@
Terminal
headquarters
vorrangi@@
igten
Unterhaltung
approx
Gebühr
operative
laser
transformation
realen
biological
ules
Arbeitsgruppe
racing
mini-@@
wahlen
vorgehen
mien
entries
erre@@
Fed
emerge
watching
Extra@@
self
Prakti@@
zell@@
diger
Einwanderer
ple
ingt
Verfasser
blame
technologische
beliebigen
hospital
Alber@@
grei@@
spätestens
eingeräumt
lé@@
namen
irische
minimal
Feier@@
arbitrary
hef@@
zah@@
té@@
Madeira
visitor
facto
Santer
dachte
vergeben
kostengünsti@@
ja@@
auseinander@@
bereit@@
disputes
Santiago
CM@@
gische
sos
Solche
worry
urity
unstable
kommerziellen
sar@@
Cala
Sili@@
Neues
competences
Desktop
adjust
handed
Slovenia
proce@@
ernsthafte
vel
illing
Betrug
writer
Lich@@
jet@@
breit
elderly
birds
oberen
Gali@@
schöner
Arbeitgeber
temperatures
tary
wör@@
gesammelt
pet
half-@@
Dritt@@
Beg@@
kids
NRO
Rek@@
lokaler
konvention@@
orientierten
warmly
Hunder@@
part@@
findings
überein@@
Steuerzahler
ressourcen
pursued
schränken
Info@@
cz@@
orien
warming
undermine
kommun@@
eintreten
integral
Freuen
lichkeits@@
loved
eas@@
zellen
rücken
edit
größe
blin@@
Come
11@@
Vertretung
Friedens
rest@@
kontinuierlich
Innerhalb
Verts
consistency
Lager@@
essence
auen
Var@@
insofern
cip@@
Mobiltelef@@
fulfilled
rose
jemals
motions
etri@@
ambition
camps
Spy@@
Darfur
Pel@@
Ferien
wen
Erweiterungs@@
alli@@
ßten
Work
Fair
Venezuela
tube
rem
ate-@@
dep@@
Obviously
Geno@@
Bad@@
gnis@@
ausgewählten
Bildschirm
führungen
räum@@
Profil
recep@@
erfasst
ruhiger
pro-@@
equity
dat
Yugoslavia
vels
emin@@
CP@@
aded
ST
tian
т
AKP-@@
assured
dium
PK@@
Gil@@
gst
ühr@@
Maxim@@
perspectives
derjenigen
Gum@@
Konstruktion
Liqui@@
fangs
Bonus
3000
credi@@
alarm
geistigen
Bill
Renaissance
Lad@@
crops
zeitgenös@@
Tourismus@@
ebenen
Lebanon
то@@
Konfiguration
alleine
erlei
Visit
Emissions@@
isn
Erbe
paradise
erneuerbaren
survi@@
compli@@
fehl@@
continental
Angel@@
bestens
volcan@@
tations
Vin@@
Tennis@@
Wiener
wahl
Aro@@
Fore@@
clu@@
passes
Konflikt@@
proto@@
Nom@@
unterstütz@@
worfen
verwirklichen
Ten@@
Drittstaaten
salon
ausführlich
venue
Shanghai
Rubrik
beschließen
gra
specialities
modernes
Brok
mut
itäten
bewirken
tnis@@

controversial
süd@@
Liberal
biodiversity
sentence
judgment
verpflichten
Communist
ef
Editor
verletz@@
restau@@
Mehrwert
Konzentration
Tä@@
Seen
Europar@@
fuhr@@
stete
well-being
concent@@
legten
Drive
Geräten
196@@
Inkrafttreten
iny
mic@@
verzeichnen
fuels
wäch@@
1984
Grundsätzen
curi@@
.ch
anony@@
Profession@@
Ausübung
beginn@@
convince
suggestion
wirkungs@@
fes@@
orienti@@
aer@@
Features
Prozent@@
Das@@
24-Stunden-Rezeption
Process
wages
plötzlich
enta
graphy
zunehmenden
IL
FL@@
konzept
Drei
Muster
Aktionsp@@
unvergess@@
Zü@@
basierte
ziel
tured
Krisen
bags
rom@@
quot@@
Tochter@@
Pur@@
Vertre@@
Gespräch
Chan@@
politan
pleas@@
gle@@
uen
PCs
deutlichen
como
erheb@@
Mountain
bill
blichen
AKVIS
abilität
Rußland
Woo@@
explains
ruf
æ@@
open-@@
eindrucks@@
respektiert
Andreas
Eco@@
erweiterten
confident
RSS
leather
Zul@@
Elevator
FOR
komfortabel
hed
Techniken
receives
lowest
agent
kreu@@
holes
tro
xy
arische
oured
choosing
Herrschaft
lou@@
Live-@@
shaped
Konzep@@
ruft
defe@@
TV-@@
Organization
Kais@@
Konzepte
outs@@
ennung
Taste
Studium
Vill@@
ough
ät
Sitzungen
inu@@
poin@@
weitaus
rats
Palacio
Tuesday
demokratischer
ös
Kreativität
Verluste
Om@@
legislat@@
äf@@
describes
Anwen@@
angelegt
berichte
strit@@
koordini@@
gend@@
ordnungsgemäß
Grünbuch
periode
schaftsp@@
unemployed
bearbeitet
Develop@@
disappointed
sonstigen
Merkmale
phi@@
ahl
mann@@
affung
Glo@@
Certi@@
Change
Gerichten
Smith
ect
specifications
cha@@
typische
registri@@
erbaut
gelt
Reader
Panasonic
Finance
normale
batt@@
ń@@
kritische
vertreter
enswerte
ography
chef
Ausschüsse
gelegten
gesonder@@
ligkeit
produkt
artificial
Vertriebs@@
bindung
erfahr@@
Fernseher
Unsicherheit
Taliban
gesundheits@@
hl
feiern
Rhein@@
messe
Division
vend@@
wiesen
zielt
Ocean
Tob@@
Double
ira
ball@@
Antonio
gaining
gur@@
bildungs@@
schli@@
dena
olls
gefährden
völ@@
II.
goti@@
threshold
trennen
Medizin
FOR@@
U-Bahn@@
liness
minist@@
Alltag
Kirchen
leid
Milli@@
eradic@@
Cubase
Rak@@
adju@@
avoided
cache
kab@@
genetic
Rand
fortgesetzt
demokrati@@
Getrei@@
zon@@
substantially
Nacht@@
angewiesen
voneinander
konstruktive
frischen
estimate
vern
parado@@
Rassismus
End
harmony
UND
gging
catastrop@@
Zit@@
Consulting
consul@@
luß
Mom@@
column
practically
Beschluß
vorbehalten
rom
Umsatz
noticed
pron@@
sätzen
bedauere
bewiesen
hte
isten
Virus
flicht
eingeschränkt
wirksamen
fis@@
cep@@
meantime
Französisch
Unterlagen
bereitung
Innovations@@
novel
JP@@
measured
Hôtel
Light
ohnehin
performances
emphasised
vernünftige
inte@@
Kräften
nötige
zentrali@@
ords
erörtert
rubber
shar@@
qualifizierte
Geschäft@@
partnerships
hersteller
Besteuerung
sheit
Erfolgs@@
lakes
fate
beizutragen
Sarkozy
chens
teacher
Bosnia
Äußerungen
consult
chambres
essions
Angriffe
incentive
decent
rob@@
Gipfeltreffen
Additionally
gelei@@
experim@@
wendung
versicherung
Def@@
450
Spi@@
flag
einzugehen
folglich
capture
krieg@@
Motto
bureaucratic
Capital
theat@@
Unterzeichnung
fühlt
Gulf
plac@@
treaties
girl
meldungen
Bewältigung
ś@@
getötet
endem
wü@@
sear@@
lesson
Wettbewer@@
basierten
Feli@@
ль@@
aven@@
gains
uma
Simp@@
Sä@@
bür@@
bürger
Erforder@@
fehler@@
Kapit@@
realistisch
heu@@
fliegen
Lobby
Kapazitäten
Premium
ktivität
scenery
ailing
unterbreiten
Host@@
thoroughly
Call
vigor@@
zentr@@
supple@@
ministeri@@
spiegelt
Kongress
belt
prim@@
ally-@@
rupt
EST
eva
ght-@@
Leu@@
piano
klär@@
Lou@@
solo
pursuant
plates
Konkurrenz
vernünftig
raises
amending
plurali@@
ulen
Höh@@
kirche
ace@@
deutet
Angeles
rel
Bedienung
Everyone
deliber@@
х
1978
bilder
doctor
hypo@@
verkün@@
änder@@
chro@@
Frü@@
mp
tangible
Anhörung
Aktivität
angeblich
Ibiza
plain
Güter
schil@@
Release
enlarged
develops
Anna
ungeh@@
1967
Büros
orientiert
komplex
Vorfeld
glei@@
grand@@
konzipiert
may@@
shots
swit@@
Buchungs@@
indu@@
Datenschutz
Kabel@@
Ähn@@
S.A.
globaler
Natural
lehnt
Schlag@@
zierung
distor@@
Energiepolitik
ältere
Vorgaben
breathtaking
Inspe@@
Verteidigungspolitik
bilateralen
Karriere
schließe
verschmutzung
Ath@@
Four
Flugzeug
Millennium
institu@@
Beschäftigten
cum@@
teilten
stoß
differ
Kaffe@@
Programmi@@
erwähnte
discher
namens
interessi@@
flowers
CI@@
Attraktionen
strange
Sher@@
Spit@@
achtung
circul@@
fizi@@
drafting
ota
preliminary
challenging
befrie@@
8,@@
gabe@@
compo@@
buil@@
guides
Feld@@
Komit@@
lingen
etz
übermittelt
vre
Merk@@
fold
predic@@
nachdenken
favor@@
signature
Städ@@
tiefe
Heating
paintings
steuerung
isolated
Regulierungs@@
digte
SH@@
europ@@
Wort@@
Bezahlung
Tut@@
2007-2013
sons
stati@@
ausgesch@@
ired
Young
fig@@
Whit@@
CC
traums
scann@@
talked
pharmaceutical
spei@@
Nonetheless
arity
Palestine
voran
photography
21st
tailored
etzung
damaged
Lasten
schrittweise
frucht@@
inbegriffen
verantwor@@
Zimbabwe
torate
Luxus
labor@@
wra@@
Missbrauch
aufgerufen
jet
verzö@@
ethnischen
detaillierte
finances
Wissens@@
Catal@@
incredible
Mittelme@@
aktualisieren
Parliamentary
bone
entrepren@@
runde
irgendwo
endgültig
MS@@
familien@@
verwalten
3D-@@
hop@@
stipul@@
regulate
brech@@
reiz@@
conveniently
executed
Optimierung
activated
Prävention
läne
Luggage
24-Hour
ε@@
Communication
benef@@
ysteme
dental
einhalten
austau@@
Fluggesellschaften
empfin@@
CAR@@
eingerichtete
zielen
tress
ver-@@
centrally
füh@@
strengen
acknowledged
engineers
Tanz@@
nisses
Abenteuer
erb@@
kontrollen
zips
formul@@
Koordin@@
schnei@@
Flugzeuge
acquire
Iraqi
TER@@
celebrate
örtlichen
Tom
pedi@@
wahl@@
begrenzte
Papier@@
deemed
Hitler
Frühjahr
Ecke
abund@@
statistical
rations
associ@@
Fähr@@
amo
lick
erfolgte
Lehre
Flexi@@
35@@
Besitzer
internation@@
samkeit
Pass
nah
derartigen
forcing
istischer
Hügel
finest
Sper@@
eras
Dritter
bread
konstitu@@
beabsichti@@
holders
tetes
brenn@@
Unternehmen@@
tering
consequently
tless
forums
aggressive
во@@
-in
ignored
Hir@@
exklusiven
battery
kali@@
oul@@
beruhi@@
dete@@
characterized
controller
gutem
Regimes
sicherungen
login
Ric@@
interview
Kernel
aktion
derived
circle
nonetheless
compare
gefährliche
About
ça
gefährlichen
sst
asen
Climate
blatt
demographic
promo@@
ston
islam@@
militär@@
ehrgei@@
bra
Tempo
keen
LCD
peak
themes
griff
lav@@
vorgesch@@
Eigenschaft
Tool@@
thal@@
Abstimmungen
connecting
vity
angeschlossen
beurteilen
DIN
gulierung
registriert
Regionalpolitik
lea@@
dlichkeit
sporting
File
vermögen
phot@@
provin@@
aufgaben
ann
Übereinkommens
ebs@@
Darin
Transaktionen
score
exchanges
Übersch@@
übergeben
eigh@@
haven
zten
Lehren
checking
forderte
discre@@
Konta@@
declarations
Right
Panoram@@
gy
erfolgreich@@
Dienstleistung
Reserv@@
verbesserte
Hannover
seaf@@
Hektar
größerer
secured
Subventionen
founding
fertigt
unden@@
Gerä@@
aya
az
Besuchern
ggling
deutscher
Öko@@
Classic
Bewegungen
konto
rhyth@@
surfing
Ufer
erei@@
schol@@
schlechten
Zurück@@
Entspannen
KO@@
Gegenwart
Einkommens@@
kurzfristig
realized
Justiz@@
grenzüberschreitende
lege
devi@@
beiträgt
Katastrophen
verwen@@
Advanced
angen@@
discipline
fought
bedien@@
konsequ@@
onder@@
begleiten
ani@@
SMS
licence
ähn@@
unlike
Alpine
tool@@
Beratungs@@
Parks
halts@@
hervorra@@
erreichte
Schengen-@@
surprising
foods
skilled
Soweit
adjusted
cheese
rid
searching
Touren
kritisiert
würfe
environments
realisieren
abschließend
dez
abhängi@@
biegen
nehm@@
pain@@
änderung
kultur
verän@@
mithilfe
gewisser
neben@@
qualifizierten
ption
Entdecken
recei@@
ministerium
Spring
esischen
01.@@
walks
Übersetzungs@@
expressing
propri@@
bie@@
TEN@@
prohibited
unterbreitet
DL@@
gigen
partei@@
INTER@@
falschen
funk@@
jack@@
Indonesia
Lanzarote
Konjunktur@@
hit@@
Sign@@
Taus@@
interinstitutional
-Seite
confusion
spre@@
149
Deep
reiben
Ball@@
Inst@@
bevorzu@@
fears
schrieb
Schatten
dominated
acknowled@@
Trends
victim
recycling
Gefängnis
vorteil@@
restrict

Subsidiarität
telling
UM
ext@@
twenty
integri@@
Leh@@
mäßigkeit
downloading
erinnere
mie
Betroffenen
Erwer@@
anticip@@
ligt
unterschie@@
ungere@@
optical
deri@@
gangenen
Vereinigung
Pflege
gewinn@@
of@@
akzeptabel
Vergnügen
geordnet
erörtern
nic@@
evolution
1982
pregn@@
coordin@@
Clearly
Products
kulin@@
eco@@
Metern
gym
simpli@@
monitored
denti@@
Zimmerservice
musik
wording
Vermittlung
tells
beth
guidance
korre@@
Discover
acquis
branches
schläge
plas@@
Siehe
1975
Kurse
्
Sand
36@@
gewünscht
Display
dependence
Wille
multimedia
monat@@
interessieren
recip@@
gebi@@
herrliche
Gepäckraum
prominent
strenge
teter
complexity
Gewinner
regrettable
ratifiziert
ausführen
beizu@@
Stor@@
geschlagen
Futter@@
elemente
üblich
äle
setup
Anweisungen
enttäuscht
ysi@@
gesetzte
nö@@
koh@@
spiritual
dom
beobach@@
berühm@@
Zuständigkeiten
agentur
schlü@@
womit
ermutigen
translations
Fro@@
dein
MAR@@
Socialists
Generaldire@@
außerord@@
Picard
Macedonia
erläutern
solide
einher@@
Head
eling
elektron@@
DH@@
Supp@@
stood
abri@@
pfung
unerlässlich
Reaktionen
CAD
pos
economics
visi@@
Regul@@
genehm@@
kommende
rechtfertigen
Aktualisierung
thoughts
Referenz@@
sexuellen
she@@
undertakings
Interface
Vorsitzender
beschei@@
sustained
Hence
Jackson
15-@@
engli@@
defense
automated
Laser@@
ahlen
stecken
dent@@
Cold
hierarch@@
Überarbeitung
argu@@
reichung
dner
Onlin@@
vorange@@
tägliche
Wiederauf@@
bist
deck
Learning
Studien@@
indication
onie
bid
erhö@@
stän@@
70@@
positionen
Aff@@
kritisch
negativ
lean
langes
steckt
survive
energ@@
japanischen
dell
Bilanz
leiter
Radio@@
manifest@@
5th
News@@
shortcomings
Norway
Arbeitsbedingungen
90@@
blä@@
Genuss
Barcelon@@
fris@@
würdige
Dienst@@
Sometimes
transatlantic
pione@@
Gemäß
subsidiary
Freiwil@@
aps
handels
Citizens
centrali@@
beschreiben
Arbeitnehmer@@
unzu@@
derten
L.
Nature
dou@@
span@@
estimates
unt
inters
meistens
erzielten
Labor@@
treff@@
näh@@
zigen
tiv
haftet
Parlaments@@
VO@@
Internation@@
ishes
belonging
Textil@@
gie@@
isl@@
entscheidet
Sevilla
Bewertungen
condemned
lacking
Andr@@
semi-@@
survival
RI
Wach@@
Gestatten
ense
Realisierung
seminars
ansonsten
Tochter
vorn
Meanwhile
lohnt
reduces
essed
Streit@@
seg@@
backs
Arzt
debat@@
fach
hyper@@
Mili@@
DI
hoped
bian
Schwimmbad
Hotelsafe
berufliche
fisch@@
registrieren
editing
C5-0@@
weißen
Armen
notion
Word
Inde@@
reverse
geholfen
oting
view@@
Close
taught
tail
B.@@
enters
Spec@@
flav@@
veget@@
trails
administ@@
Zufriedenheit
Kaiser
ow
schriften
governed
excellence
mirror
Autoren
erläutert
widri@@
Victoria
Lido
alpine
weich@@
Cham@@
unfortunate
hüb@@
Israels
Buenos
bevorstehenden
sums
Zusammen
separately
Spezialisten
beleu@@
fizierungs@@
unzureichend
aves
Aires
Danke
accepts
ECO@@
Güter@@
ensured
upcoming
Naz@@
Branchen
Dikt@@
List
Stadium
autonomy
gewachsen
Rep@@
ques@@
mining
Aufenthal@@
Easy
distri@@
married
Vul@@
Under@@
kte@@
LateRooms.com
inhal@@
stätte
expec@@
Abstimmungs@@
Weltbank
Sir
zeigten
lit
kas@@
ausgelöst
grundlegender
Wall@@
erial
emer@@
block@@
cau@@
golden
Econom@@
Herberge
3.0
rul@@
Fot@@
rant
ökonom@@
feels
exceed
vorhin
Chal@@
Anreise
Tisch@@
verwöhnen
Weiterbildung
ritt@@
accu@@
Hoff@@
gged
liberalen
Anregungen
Rande
outset
verhäl@@
Palästinenser
6-0@@
Roman@@
sert
samen
sens@@
fluss
fts@@
fel
returning
Orts@@
adel@@
litten
tape
zeitig
erneuerbare
Verantwortlichen
Gipfels
ions
tam@@
racism
exerc@@
erfreu@@
lens
gerweise
sibly
amend
Stein
ypen
Dim@@
mündlichen
bedenken
Gesprächen
tiven
Heimatland
halb@@
wachsen@@
tika
deser@@
Them@@
Vertei@@
gge
erworben
Büro@@
Europa-@@
inen@@
Ltd.
mani@@
Wü@@
Tragödie
resorts
circulation
migrants
aten@@
Apache
künstler@@
insp@@
age@@
Taxi
drafted
Trink@@
Müller
immense
Abstand
Karten@@
Beruf
amen@@
Enter@@
exceptions
ular@@
brain
Wochen@@
cheaper
Benutz@@
unlikely
Verträgen
begeistert
ousness
Philipp@@
departments
ignoriert
händler
Fif@@
verwaltet
Manche
Baby@@
keinesfalls
Non-@@
incorporate
seits
Mitglieds@@
Ministerrat
filling
Erkenntnisse
Jazz
boy
Gewerkschaften
Army
Declaration
lon
13.@@
spit@@
fault
idealen
inge
weiterzu@@
fur
abandoned
ament@@
tionality
nutzbar
teilgenommen
invitation
Territ@@
delicate
Juan
flash
droht
ökologische
ürzt
endo
Currently
torture
Abschluß
simplify
schungen
gkeits@@
gi
Moskau
Gru@@
Nicht-@@
geom@@
Lebensmitteln
Buddh@@
HR@@
Budgetary
Tschechischen
Building
kore@@
rän@@
Wikicars
grew
verhe@@
Privacy
Pierre
perc@@
fund@@
inieren
cion
potenzi@@
arge
Gesellschafts@@
atmosp@@
angeben
Verhand@@
Dynam@@
therapie
alogue
Tee
äd@@
bezauber@@
Essen@@
Übersetzungen
Horiz@@
follow-up
inations
ium
Zug@@
Voyager
thr@@
Sowjetunion
Amtszeit
responses
Lebensqualität
Effekte
Beruf@@
kot@@
orten
wan
til@@
schützt
implemen@@
bekräftigt
inquiry
dreht
Watch
verdi@@
Massa@@
Steuer
speich@@
Anhang
crossing
advoc@@
vine
makro@@
allies
eingebunden
calculated
yn
Patent
show@@
publicly
badly
frist
Aktien
Erkenn@@
jeweilige
reichhal@@
verabschie@@
accepting
grüne
demonstration
Milosevic
roughly
aga
Fahrrad@@
IE
preferences
Jak@@
ourcing
Christ
Unterdrückung
sher
exploring
zeuge
Above
ältesten
reale
inning
vorkommen
conjunction
grants
ION
styles
T.
bath@@
infringement
bauten
angefangen
Wales
simp@@
haltenen
rejection
ul
daughter
vegetables
bands
large-scale
Wartung
attract
Empfänger
mathemati@@
Mittelmeerraum
Litauen
fusion
Libya
exklusive
betrag
ale@@
penalties
dangers
utzen
arab@@
Franz
Einzelnen
ungeachtet
gesell@@
internationales
Unabhängi@@
einzelner
Clinton
Chr.
irgendwelche
discovery
Boh@@
Panorama
Aufforderung
gegenseitige
unification
Avenue
Investition
monthly
failing
Ein-
Breit@@
crip@@
Palazzo
Renten@@
Naturally
1976
Buffet
orte
fertigen
characterised
bal
moderate
desper@@
celebrated
landscapes
Tyrol
mitgeteilt
indirect
ι@@
pragmati@@
eingerichteten
Integrations@@
Fat@@
D.@@
troub@@
jects
arte
modes
defects
einheit
GBP
landes
gesunden
glu@@
Behin@@
aciones
expan@@
izz@@
Erzeuger
Heiligen
Cher@@
klassische
orca
advent@@
real@@
mou@@
DIE
conve@@
lessly
conci@@
Sard@@
chocolate
Schattenberichterstat@@
trademarks
doctors
Problem@@
line-@@
Kinnock
time-@@
pin@@
Umweltschutz@@
Rahmenprogramm
00-@@
ganz@@
rot
vereinbar@@
gelung
1968
hiermit
lehnen
stritten
Saudi
Medical
ror
plä@@
RI@@
Service-@@
ographic
ausger@@
Dir
Kathedrale
ria
Arbeiter
VE
umfassen@@
kompletten
Finanzmärkte
Wachstums
alize
gewählte
Ausstellungen
Gl@@
freundliches
Schlei@@
combining
Erste
GP@@
Play
.The
requiring
Indem
Libanon
beträchtliche
right-@@
gru@@
spruch
reductions
analysieren
substan@@
Journ@@
geführten
athle@@
Universal
organ
Archiv
lah
überwiegend
Cav@@
poss@@
breaks
riesige
einheiten
ordnungs@@
streaming
Neph@@
pothe@@
Cultural
Bron@@
eits@@
eded
Albania
öffent@@
deinen
reinforce
Heran@@
Lösungs@@
wenigstens
deleg@@
ruhen
fiable
Put@@
Heritage
separated
skep@@
announcement
reine
verkauf
backed
ßer
quarters
Terra@@
bases
assumed
minds
Working
Azer@@
sprachigen
humans
zurückkehren
Alpen@@
receipt
Yu@@
embedded
Einschränkung
Import@@
interim
Zauber@@
Adap@@
magne@@
rolling
Betriebssystem
sett@@
hinein
Analysen
alliance
elson
Einwohnern
freies
währ@@
GF@@
clothes
quantities
einzubeziehen
gesellschaftliche
homepage
zusprechen
Wikitravel
tü@@
kompatibel
kunst
tories
enemy
Soft
Unterhaltungs@@
Tennis
Sak@@
implies
cool@@
ulated
weekly
fires
enorm
ison@@
Schnei@@
Hill
messer
deleted
verschiedensten
zerti@@
Finanzmittel
pursuing
master@@
continually
slau@@
API
Lodge
Esp@@
Mazedonien
stro
COM@@
vergleichen
orian
verband
ails
exhau@@
traum
Gitar@@
einzuhalten
Fab@@
niederländischen
gebühr
Kun@@
Stro@@
Gerichtshofs
Ern@@
bezogene
shareholders
masch@@
einziges
wäh@@
inher@@
atorium
concentrated
aufweisen
konsolidi@@
Peru
Entschließungs@@
bte
oth
unlimited
Kandidaten@@
Logo
OP@@
Coast
sl@@
muy
zip@@
Arzneimittel
confron@@
loo@@
votre
bten
Water@@
simplification
Brief
ernste
Jahrzehnte
unprecedented
identical
abwechslungs@@
coinci@@
weigh@@
transformed
konta@@
Ji@@
ssel
beider
Haushaltsplans
LED
notwendi@@
Frank
steigenden
rence
verschieden@@
yellow
föder@@
äufe
Siena
übersetzt
Legislativ@@
tip
ogra@@
subscri@@
impres@@
exo@@
observers
horizon@@
Planet
kos
konz@@
Ear@@
Moderne
wirkungen
verträ@@
Mü@@
AV
ric
Ast@@
Barack
Moh@@
engagi@@
presentations
lossenen
undertaking
Fahrzeug@@
Kabel
rem@@
Chef
pfe
ion@@
Konsultation
interaction
ety
Montage
respecting
oes
Ratsvorsitzes
Verkäufer
sprä@@
Dach
defending
denied
68@@
labels
gegenseitig
reibung
allow@@
adher@@
ahr@@
Temperaturen
ständigkeit
partition
Wahr@@
compatibility
US-Dollar
herz@@
p.@@
orie
Zo@@
genehmigt
Zwangs@@
Autor@@
bench@@
vereinfachen
eu
Ré@@
Ausfahrt
culinary
Therap@@
Niemand
agements
evil
glich@@
Kron@@
klarer
Rav@@
Baro@@
reiterate
gres@@
herauszu@@
Stich@@
4th
Kaz@@
continuation
sightseeing
peace@@
ha-@@
Disk
rs
bran@@
Frank@@
hilfen
thos
bliche
mad
announ@@
securities
expor@@
Ris@@
rus
unteren
radiation
tv
risen
lot@@
nau@@
participated
vorherigen
Tot@@
wake
charter
PSE
Weihnachts@@
bathing
Limited
Initi@@
Anhänger
lech@@
Instrumenten
bration
frisch
Superior
örung
kultur@@
spartn@@
Betre@@
Altern@@
nennt
ssel@@
ois
Sozialdemokraten
tradi@@
kenntnis
Provin@@
up-@@
FIN@@
as-@@
winners
profound
schluss
disch
fak@@
Danube
U-Bahn
hat@@
198@@
eating
nen@@
zerstör@@
extrem@@
Bisher
shire
sicherheits@@
PDF-@@
Semin@@
konsul@@
tener
Temperatur
Halbinsel
Fitness
wendungen
mieten
underline
trauri@@
Marbella
listened
kommens
WE@@
jähri@@
pin
gaming
Vent@@
globalization
RES@@
Plu@@
Scheitern
kennen@@
refined
solving
forderten
Age
anas
practi@@
5.000
erhol@@
Autonom@@
Inhaber
gefällt
jährliche
chester
beglei@@
radio@@
permanently
heik@@
ausgewo@@
Credit
analyses
antrag
Standard-@@
dam
suddenly
fertig@@
bekanntesten
schrieben
zuverlässig
xx
Premier
vorherige
löst
Store
untergraben
quota
Eisen@@
denselben
Europa@@
Entwicklungszusammenarbeit
optimum
ausgewogenen
einzel@@
sorgfäl@@
commonly
banned
Luf@@
ssigen
Auslegung
adaptation
jan
Bug@@
gekauft
FAQ
qualitative
urban@@
enthusiasm
Flüge
dedic@@
rier
Stattdessen
specialised
Medizin@@
Ursprung
gerichtete
influenced
Sales
Repräsent@@
sont
annte
stau@@
gericht@@
Mun@@
hl@@
gent
ри@@
e.V.
investigate
berechtigten
ि@@
Ira@@
thilfe
dged
test@@
Manhattan
Kontin@@
Absichten
bien
kommerzielle
multilater@@
Hochschul@@
consolidation
backing
newspapers
dazu@@
mails
bewähr@@
adly
wohn@@
Fig@@
gli
ï@@
konfli@@
Could
quantitative
ende@@
salt
VIP
rain
Dé@@
Industriel@@
rivers
engagiert
unterhalten
Geschäftsbedingungen
Kup@@
niedriger
ML-@@
menten
ambience
districts
Nä@@
Richtlinien@@
orious
Que@@
Material@@
inal
quer
teenth
Sep@@
hops
Med@@
digten
stanz
computer@@
ş@@
begangen
Verstärkung
complimentary
invested
Partei@@
Verhältnisse
aktivitäten
weis
ны@@
Entstehung
samer
EMU
scienti@@
officer
vernachlässi@@
group@@
tackling
Überwachungs@@
durchgeführten
ilt
Add
beat
Ernährung
iser
Singapore
Key
beeinträchtigt
harte
streit@@
idealer
längere
vicinity
Segel@@
sac@@
awar@@
Berater
verehrten
Leidenschaft
ш@@
chner
Ank@@
leitet
accused
ook
MD@@
versetzt
wichti@@
Eigentümer
activate
Camp
restoration
Befehl
Dienstag
abgesch@@
ATION
ceram@@
Marketing@@
pren@@
lief
ain@@
र@@
-TV
refurbished
etric
aufgehoben
Küchen@@
iere
auswärtige
Vizepräsident
camping
trig@@
hebt
weitreich@@
ment-@@
toi@@
Marktwirtschaft
mysq@@
consisting
kill
tening
Geschenk
rows
gelang
is-@@
lending
schaden
Broad@@
isiert
shof
murder
Bedingung
ore@@
dot@@
gross@@
vermis@@
suspi@@
l.
linguistic
eness
aters
programmi@@
Ring
CAN@@
tiny
Implementierung
vorsichtig
Schre@@
jahres@@
anspruchs@@
luggage
Castell@@
Perspektiven
amtierender
Kernkraft@@
earned
effektiver
porno@@
sämtlichen
größt@@
-Spe@@
Diensten
RAM
Partnerschaften
Press@@
wiederhol@@
Wolfgang
etta
ems
epide@@
Shar@@
Berichterstattern
CP
ungarischen
debi@@
esslich
excess
durchsetzen
Hyper@@
äußerster
stabilität
häusern
pend@@
ò
zon
Komplettpreise
schneiden
erober@@
air-conditioned
ROM
verhältnisse
bezahl@@
waves
Four@@
photo@@
Internetseite
inia
SV@@
striking
Schwan@@
Gate
bricht
Chicago
Italien@@
Harbour
degra@@
verhandeln
sharp
bewertung
maker
wäs@@
inser@@
Kreis
Fleisch@@
Hist@@
Rather
short@@
dn@@
Flug
schnitte
founder
bedingt
revenues
wissenschaften
aufwand
Tunisia
glück@@
Profi@@
adv@@
bir@@
Fund@@
ambitions
vermu@@
führender
iken
wirkung
achte
knowing
lager
demanded
upgra@@
configure
Cour@@
aket
lay@@
Passagi@@
beseitigt
Grafiken
Wör@@
Gäste@@
unterliegt
tagon@@
befürworte
Toi@@
Uhr@@
isolation
zahlreicher
lück@@
fet@@
dive
Quoten
competitors
friedlichen
Swimmingpool
Fili@@
DVDs
tab
Vorsitzende
projekten
commission
villas
vement
ausgelegt
hausen
Slowenien
Initiativ@@
orn
geho@@
contributes
Schmu@@
alties
ernden
clin@@
strive
Bosnien
schlage
mond
Thermal@@
drück@@
magnetic
Abu
ation-@@
Luxus@@
Lev@@
dging
profiles
Fragestunde
user-@@
Mid@@
excee@@
verwand@@
ware-@@
Variante
deriv@@
dus
abzielen
harm@@
gleicher
arrested
Jugoslawien
stärkeren
Koordination
Gelände
Slo@@
cycling
aufeinander
Junior
Marine
Stahl
Arm@@
17.@@
Wärme@@
gefasst
Ausgang
gebrochen
colonial
inj@@
PX@@
alive
Präsidentschafts@@
teria
überlegen
Magic
carrier
schlechter
officers
allen@@
mitzu@@
motivated
Zugleich
einzigartig
rescue
errichten
gebilligt
Aktiv@@
differently
Ernst
amerikanischer
ss-@@
tedly
Ras@@
Aktions@@
baro@@
charman@@
fai@@
diensten
Kohärenz
Feuer
Deut@@
part-session
1981
Himm@@
Whirlpool
ide
employee
cca
pact
sweet
Ze@@
niedrig
duction
clearer
straßen
jähriger
emotional
hosting
freiem
lifestyle
Kamp@@
scho@@
Ernährungs@@
Beendigung
Freizei@@
warranty
congratulations
R.
discrimin@@
seminar
Luftfahrt@@
EU-Ebene
Annual
rachte
Skla@@
ne-@@
acher
Freih@@
nick@@
inspiration
destabili@@
rasche
Aufwand
practic@@
Textes
Hop@@
zusammenzuarbeiten
&apos;d
modest
unkte
Wiki@@
gter
Mount
Zahlreiche
schnelles
nowadays
databases
kin
eira
verbrau@@
Ankündigung
u.@@
Reb@@
dogs
Isch@@
sendet
Hierbei
lows
Verbrech@@
brutal
analo@@
stärkt
pis@@
tausende
Dau@@
tch
partially
problemati@@
owing
Juli@@
regelmäßigen
pré@@
jec@@
Korrek@@
Kali@@
capability
Engine
Bosni@@
Wetter@@
differ@@
Tipps
Famili@@
insu@@
circuit
Kredite
distribut@@
materialien
Minimum
ICH@@
extern@@
anded
Caribbean
startet
personenbezogenen
Gesetzes
lower@@
strö@@
Ero@@
Verein
bestimmung
Bali
lands@@
196
E-Mails
verleiht
permits
Europä@@
railways
vul@@
usses
Gew@@
Grande
bears
ule
distinguished
notification
Fut@@
Beobachter
Residen@@
Migrations@@
Einheiten
ttes
stom@@
currencies
wofür
designers
talent
Camping
Charak@@
ultra@@
diesmal
16th
Banken@@
Opfern
formula
malerischen
Gegenstände
Isol@@
brother
Klaus
ovo
schiff
Loc@@
schön@@
gelöscht
PRO
Spuren
exploit
Besonderheiten
Hur@@
kontroll@@
einzurichten
ardi@@
abkommens
round@@
belegt
Blick@@
Thai
finanziell
schaftlichen
han
Head@@
Palästina
vielfalt
Ruh@@
ae
neueste
ensystem
deny
bew@@
tzei@@
perf@@
besticht
query
versuche
irgendeiner
portugiesischen
Oslo
Ereignissen
Theater@@
open@@
gäbe
trademark
agieren
bö@@
obtaining
veranstaltungen
Vergleich@@
Produk@@
streichen
Architekten
render
palace
hs
regen
four-@@
vielfältige
tight
glücklich
Granada
beliebten
authorisation
у
Aussichten
Eintritt
Dich
Portu@@
eingereichten
simil@@
elabor@@
roles
.com.
einzelstaatlichen
asks
electronics
yl
removing
Auseinandersetzung
comforts
HS
emble
trock@@
besetzt
nördlichen
aca
appreciation
explicit
deta@@
Queen
Demon@@
intensiven
Ton
faßt
clou@@
biologischen
Hz
transmitted
nas@@
sitzung
erieren
avy
män@@
1973
embar@@
auszuüben
Infe@@
Retur@@
panels
inequality
fits
2014
use@@
independently
zent
Rechnung@@
Yor@@
entstand@@
sinn
ffene
Rental
fruits
gerei@@
begrenzten
Mehrwertsteuer
effektiven
Euros
europä@@
Deine
alling
Prac@@
Elementen
authentic@@
ber-@@
Gelegenheiten
Meer@@
gehörigkeit
Schwimm@@
Reihenfolge
gerechten
encounter
Continu@@
vention@@
rice
verstoßen
assessments
sim@@
datum
igkeiten
festivals
Stadtteil
mailing
Verzögerungen
grave
stakeholders
Benjamin
stunden
1983
Future
align@@
plugin
Zins@@
Fehlen
Wachstumsp@@
Technologi@@
zerstören
harv@@
einmalige
translate
check@@
Bildschir@@
rez
atur
Nie@@
boarding
Zinsen
3-star
cultiv@@
Zut@@
Vorbereitungen
schwerer
acking
you@@
kanz@@
cap
mounted
Cube
fossi@@
220
konstruktiven
safely
woods
Entertainment
Clo@@
Kommissare
tensions
Grö@@
cat
verankert
Verzögerung
repa@@
mengen
struck
OG@@
gathered
wire
shr@@
embran@@
gesunde
CO2-@@
Pad@@
-System
Eintrag
ichtet
perman@@
jer@@
gear
Kanal
lli@@
attri@@
nützliche
Datenbanken
ocean
Soli@@
laboratory
investigations
chal@@
Sorgfalt
atories
ug@@
infra@@
Top-@@
berg@@
investing
Anders
anxi@@
Guar@@
bey
Bür@@
Frage@@
vy
scenes
unk@@
rative
gericht
üben
geschwindigkeit
Entschließungen
sé@@
aufrechterhalten
accountability
Listen
Juden
schlimmer
Moldova
hectares
Ess@@
0.00
capacities
Flotte
utility
weren
endete
awards
verbesser@@
170
tournament
schulden
Flughaf@@
Empfän@@
Ord@@
Awards
tron@@
Untersuchungs@@
witness
infec@@
menü
stabile
müsse
zukünftig
aterie
leidung
Vogel@@
1960
bestä@@
warmen
Summer
anbietet
Freien
orient@@
ermitteln
ynn
TU@@
2000-@@
featured
Benach@@
mid
Merkel
ignorieren
recover
conscious
Än@@
schaf@@
onischen
EX
observations
classi@@
raff@@
atz@@
dä@@
ess-@@
fortable
stringent
spr@@
verfüg@@
Henry
Dy@@
breites
sser
boundaries
ellem
MAN@@
Blin@@
DEN
scenario
auseinander
Gemeinsam
ouring
Legitimität
zumal
intim@@
press@@
Selb@@
Job
extends
kilometers
exquisite
Steu@@
climbing
zustand
Festi@@
seekers
Beweise
towels
Theatre
flüge
Mountains
Eigentums@@
klares
türkische
cinema
kenntnisse
inary
Genf
distribute
it-@@
blau@@
Impulse
HR
Between
TC
shoes
Kompromis@@
zauber@@
verliert
sexuelle
heb@@
griechische
erw@@
hide
gerichteten
enrich@@
junger
allo@@
verständ@@
Bremen
Aufruf
Monta@@
amm
preventive
1974
Organen
Let@@
verm@@
fec@@
Algarve
gele@@
touched
krie@@
kauf@@
eption
giert
Outlook
finanzieller
household
speaks
Relations
NG@@
Begriffe
Adriatic
Gun@@
ologically
Christen
dago@@
mos
pati@@
host@@
alia
21.@@
esen@@
Sant@@
luck
titles
dentally
Tendenz
Spirit
bewe@@
verhandlungen
zukunfts@@
appen
analysiert
Gebrau@@
Kommissionsvorschlag
firmen
ind@@
PPE
luxuriöse
Simply
bereitzustellen
profitable
cting
größtenteils
Große
fifteen
Konflikts
wolle
promotes
wenigsten
Arbeitsweise
Fün@@
wedding
sanc@@
sson
Spei@@
bedauern
studios
negle@@
reb@@
DVD-@@
zin
Frattini
lern@@
unmittelbaren
countless
Tokyo
menus
younger
mari@@
vie
coalition
Integrität
finishing
mehrerer
andt
gewiss
Manchmal
Acht
erbar
verschoben
stimulate
damaging
Sekre@@
authenti@@
ranken
Diagno@@
verschieben
fabri@@
constraints
Geschle@@
supervisory
genauen
reser@@
zö@@
levard
Reichtum
interessan@@
installing
surplus
Veranstaltungs@@
erlau@@
adequately
first-@@
ritt
Converter
bat
mittag
phy@@
Partners
cha
afterwards
Elektron@@
theast
Erleben
Randlage
Tatsachen
ints
Effektivität
Frieden@@
bestellt
Grupp@@
free-@@
Kluft
Forest
Mou@@
trü@@
18-@@
Trennung
ec
Golfplatz
belgischen
Abgesehen
cooling
euro@@
entfer@@
unterstreicht
Sax@@
Kopie
Prü@@
angehören
Folglich
gin
scra@@
vorne
musicians
besides
-in-@@
rift
consulted
collections
emissionen
tainer
ATA
geeign@@
Wahrscheinlichkeit
jud@@
gebrau@@
Abonn@@
reicher
angel@@
Bran@@
selbe
flotte
zier@@
Aufträge
starker
divide
Out
template
weapon
pride
Ev@@
E-Mail-@@
Gastfreundschaft
skosten
wünschenswert
reaches
seaside
ecke
Kim
fic
Estonia
tico
aken
Rosen@@
begreifen
thor@@
fälsch@@
Jews
bia
16.@@
delayed
TAC@@
ellen@@
wandern
stitution
dreams
terror
gischen
Män@@
15th
joy
landwirtschaftliche
ulieren
temperat@@
class@@
Hierzu
Cross
vineyards
Trag@@
Maus@@
washing
wissenschaft@@
summary
feelings
Holy
sail@@
Tap@@
bloo@@
umfassendes
ie-@@
verknüpft
schuldig
Armuts@@
endung
hôtel
Argentinien
Jur@@
flan@@
Seever@@
Adam
retro@@
unanimous
asiatischen
bedeutendsten
interpreted
Workshops
killing
Weißbuch
esp@@
Energieversorgung
cus@@
zutiefst
rägern
hn
ühle
o.@@
elite
nähe
qualities
gases
Vorbild
ausgestatteten
unvergesslichen
atte
Stabilitäts-
ь@@
fristig
gipfel
reiter@@
eux
stattung
É@@
dauerhafte
ordnen
Blut
argued
Kunststoff@@
Garda
indigenous
coherence
Pie@@
geschätzt
Psych@@
Zur@@
fang@@
filters
cine
Eurostat
stunde
Nationalpark
Mountain@@
fat
gewann
wus@@
inevitable
schmerz@@
blü@@
Ausgleich
besseres
saison
Unlike
geklärt
lok@@
Teneri@@
Deli@@
Metho@@
Inneres
großzügi@@
Regarding
Reak@@
repe@@
plying
1500
reib@@
Leid
Defizite
Days
Rechtsan@@
Muslims
parlamentarische
Directors
UPS
Nuklear@@
spell
ity-@@
NOR@@
bereitstellen
wechselt
17th
Lav@@
Rats@@
dictatorship
luxuri@@
detailli@@
boom
SD
Zubehör
mono@@
opponents
Wechsel
ströme
Prix
cam
Mauer
Versuch@@
furthermore
Intelli@@
optimalen
Fortschrit@@
ä
Zwecken
rang
nachvoll@@
sincerely
recover@@
wurfs
friedliche
ebo@@
Menschenhandel
Fertigung
Versand
lische
schau
PN@@
Prestige
ы
abolition
Jam@@
zugän@@
latt@@
verbot
Rock@@
más
engagement
bedeutend
uliert
Dolmet@@
sieb@@
zeitlich
influ@@
reconciliation
umgekehrt
Vorwand
Spen@@
gegebenen
korrekte
Reh@@
reader
Hinsichtlich
eligible
I.@@
Supervisory
Jahresbericht
ees
mittlung
Business@@
125
neys
ames
ror@@
ausbildung
interessen
albeit
tätigkeit
ppen@@
geteilt
mehrmals
umen@@
geltend
blocked
door@@
beitreten
Tai@@
Veget@@
disman@@
ALE
gravier@@
delivering
Oxford
südlich
dimin@@
justification
moon
Friedrich
tained
Ultra@@
sendung
Mary
Spielraum
Excel
indispensable
institutionen
Rimini
Vermeidung
Being
Privi@@
ermaßen
realised
DJ
veter@@
therap@@
Klar@@
lüssen
Zäh@@
elegance
Geschlechter
lägen
Alpha
LateRooms
Korean
Sty@@
annt
Provider
erwar@@
Funktions@@
außergewöhnliche
Print
erschienen
Sym@@
separation
Tunesien
assungs@@
leihen
Zulassung
krank@@
â
PC-@@
nik
veaus
helicop@@
anstelle
ertem
lez
otel
lap@@
essive
Fischer@@
müßte
Erreichen
conviction
resistant
umen
prüfung
gesun@@
Clu@@
gefolgt
Krieg@@
Leistungsfähigkeit
Religions@@
suspension
klausel
Beachten
chemischen
betrug
korrigieren
gehörte
Exhibition
in-depth
Sky
Ny@@
stroll
Zusammenbruch
übrig
acken
mort@@
explanations
Touristen@@
Plugin
stit@@
pipeline
Territorium
teri@@
Voraus
unverbin@@
ßte
ailed
turn@@
aders
wunderbare
Pfei@@
bec@@
interfaces
Cot@@
crystal
entworfen
ignor@@
singer
Alm@@
strafrech@@
cements
untereinander
wesens
ölle
og
KOM
races
beha@@
Schal@@
durchgesetzt
taten
bereichs
ausgebaut
Wurzeln
bietern
clarification
Neuigkeiten
Timor
Stütz@@
eite
ladimir
Deluxe
loud
strategien
recy@@
Glaub@@
prompt
ruled
colon@@
noisy
frisch@@
audit
TA@@
twelve
Interview
BAS@@
arran@@
artig
integr@@
bereitschaft
vertei@@
Univers@@
Love

ahl@@
chil@@
out-@@
bub@@
MI@@
Verona
arriving
outer
hung@@
Standpunkte
getestet
servative
bark@@
fici@@
marriage
complic@@
attempted
erc@@
Architek@@
verglichen
wuchs
Photo
Möchten
stischer
на
genügt
decoration
leichten
mündliche
liqui@@
mins
complement
islamischen
Christdemokraten
gesorgt
existed
veröffentlichten
Zugangs
Watson
Transa@@
vorhandene
tram
verbindlich
Allow
1977
stün@@
obo@@
graphical
reproduction
invites
Hav@@
Telekommunikations@@
entities
beliebt
alis@@
am-@@
agre@@
enjoyable
Refle@@
uten
emandem
sav@@
Karel
fache
Offizi@@
Dire@@
Besichti@@
vorangegangenen
runden
single-@@
Komponente
Ganzes
Netzes
hrt
Frankreichs
Abfälle
contest
crow@@
weisungen
schwarzen
esco
dauerhaft
schulen
deeper
gebenden
ger-@@
ital@@
jung@@
acro@@
12-@@
lichung
FF@@
Wohlbefinden
ktives
Shopping
Jes@@
att
inhab@@
Vorredner
Tagungs@@
designated
abe@@
Argum@@
weitergegeben
maßgeb@@
räder
scep@@
calculation
undes@@
keit
FS
Berechnung
await
somewhere
Kro@@
Allgemeine
conditional
trail
Video-@@
systematisch
Maison
lawyers
drehen
Hunger
kurz@@
smu@@
Leonardo
zeitraum
Spr@@
vorbe@@
ssige
critic@@
Materials
Electri@@
kör@@
endless
bag@@
processor
gemü@@
Laeken
schle@@
erschien
decentrali@@
cross@@
ually
mountain@@
wozu
Texas
faktor
zwangsläufig
zulässig
belegen
tchen
consist
Geschichten
Ress@@
cts
Grundfreiheiten
reviewed
stieg@@
Ersatz
Albanien
reinforced
spezif@@
Heim@@
kamera
Festung
lag@@
bann@@
massi@@
Zielsetzung
Ursprungs@@
Ausnahmere@@
Informationsgesellschaft
té
anmelden
lässi@@
Zuerst
Präsidium
aan
autor@@
Anzeichen
passenden
printer
unglaub@@
Rahmens
character@@
Ben
electro@@
event@@
Hilfen
gültigen
avoiding
sag@@
Seh@@
noti@@
quet
Recy@@
Simul@@
packed
maß
org
Deutsch@@
genheit
Ernennung
ausgewogene
tment
Schiffs@@
Sli@@
prechen
Chaos
fehlende
Azur
Libyen
weitem
Carlos
4-Sterne-Hotel
Heb@@
industrielle
five-@@
Elite
co-operation
tick
Arbeitskräfte
counting
Jack@@
Buil@@
Foot@@
Fuss
check-in
beträ@@
anno@@
limitations
Freie
Consul@@
teach
etten@@
ras@@
sozusagen
verblei@@
Schlu@@
hinzuweisen
förmi@@
Cannes
bad@@
fundamentally
ferenzen
Fertig@@
herunter
admission
entiert
Mailand
Zent@@
remo@@
geseh@@
Christians
libraries
defizit
Petersburg
ING@@
Bed@@
leg
Focus
einzustellen
erinnen
hairdryer
Menü@@
Sci@@
expl@@
symbolic
Mühe
bemerken
unterhalb
gerin
fif@@
Enth@@
langjährige
Split
enda
2,5
Respon@@
aufre@@
Stränden
extrac@@
globally
Simbabwe
freundlicher
Mugabe
fischen
Wahrnehmung
Liter@@
Erfin@@
brand@@
15.@@
retirement
liquid
Konzert
Mehrere
Monitoring
Stimmung
autonom@@
Treiber
Betrugs@@
stie@@
porte
Kühlschrank
distan@@
schaff@@
einsei@@
Landschaften
Progno@@
rische
wich
000@@
Child
hunger
Informations-
Stabili@@
hazardous
erzi@@
Sn@@
hopefully
Speicher
panorama
cz
qm
Fertigungs@@
USB-@@
dun@@
DM@@
kommission
diox@@
treibt
Dörfer
ius
symbols
lichten
ielle
ruption
outlined
onte
Friedrich@@
eman@@
SIS
bürger@@
lays
stufen
Somm@@
cargo
bevor@@
Relax
verbieten
Besteller
Train@@
ask@@
pe-@@
HOTEL
Gross@@
laying
Verbindungs@@
fasst
subscription
G.
Facebook
turm
Flas@@
inevitably
legendary
ruppen
Digit@@
vessel
ausgearbeitet
E.
Label
Collection
iker
utive
ürz@@
religiöse
Abend@@
anstal@@
Rezep@@
ckers
Sämtliche
bikes
php
eable
igrant
incident
1950
Krä@@
mean@@
Basic
Binnenmarkts
stechnologie
voices
ausgedrückt
Feder@@
Gemüse
ians
detection
vermehr@@
beautifully
Devisen@@
REACH
Mitwirkung
gl
Solange
floo@@
oods
ranges
abends
Côte
year-old
aggre@@
Konflikten
Songs
on-line
offset
impetus
besagt
openly
späten
Wert@@
delivers
Ratspräsidenten
oration
izes
Walter
shooting
instability
Boli@@
Literatur
supplement
Ärzte
bungs@@
Schaf@@
energie
simplified
Verkehrsmittel
nobyl
Gleichbehandlung
Pfer@@
Tony
Konzerte
advances
spieler
wasn
advocate
erweiterte
generating
Applikationen
Wunder
Dubai
fertili@@
fulness
fabric
intergovernmental
implic@@
ress
Dringlichkeit
antiken
Much
distant
gründet
highway
impro@@
tauschen
benachtei@@
wahrnehmen
Ash@@
que@@
usi@@
Mittel-
Infos
petition
scop@@
ty-@@
schwedische
tale
erschein@@
mming
Journal
Type
arien
prints
carries
Einladung
geschätz@@
passi@@
capitalism
aku@@
bor
ouldn
Schri@@
entwickel@@
....@@
F.
workforce
John@@
dbar
SSL
dust
universe
Kommand@@
Soci@@
inne
anderswo
durchschnittlich
entschei@@
Kommentar
inter-@@
schaftliche
anstreben
tatsächliche
änderungs@@
verwirklicht
großartige
dow
traditionell
maintains
zio
müh@@
verbreiten
tremendous
Vermarktung
adidas
Commun@@
Geträn@@
asi
itz
Canaria
eme@@
Nutzungs@@
abgehalten
ICE
notic@@
stating
Save
xis@@
Fis@@
Neu
höh@@
cycles
Schwier@@
strand
pläne
sensitivity
19.@@
atemberau@@
cris@@
nnen
1969
Later
exceptionally
heil@@
Durchschnitt
algorith@@
ance-@@
Automobilindustrie
Parlamenten
systematically
vou@@
ju
Stellenwert
Visual
Unserer
Feri@@
Though
Statt
manip@@
infrastructures
Panel
Ps
Review
SK@@
Bestand@@
indirekt
höhe
ständiges
abili@@
insight
stir@@
Substanzen
Baroness
ideological
twenty-@@
EGF
christ@@
reasonably
aktiver
horses
mile@@
tana
abu@@
mixture
Statistik
prochen
Application
refriger@@
Auswahl@@
Beton@@
deutlicher
Sensibili@@
brin@@
overnight
worker
wickelt
selecting
fahrzeugen
Petitions@@
eingang
robu@@
Konkurren@@
vorschlägt
wende
bewirkt
Vielmehr
restra@@
begrenz@@
mein@@
benötigten
TEC@@
Teu@@
betreibt
Finanziellen
defiz@@
Round
gezielt
tritts@@
refugee
Bier
resumed
cost@@
booth
Egal
ades
abuses
Anmerkung
newest
Peking
pop
Everest
Mitentscheidungs@@
EK@@
Spanisch
Hein@@
privati@@
law@@
häufiger
mits
tracking
tolle
oxi@@
Energies@@
robots
assign@@
mineral
Annäherung
Gerne
Dr@@
Indonesien
Kandi@@
gau@@
quer@@
container
dele@@
Komple@@
Schiffen
Abwicklung
aboli@@
1990s
NE
Einblick
Jahrzehnt
Zellen
reno@@
vorrangig
Projektes
shaushalt
borro@@
Gefän@@
donors
verschwinden
nutri@@
lying
TNG
Verz@@
abzielt
flüsse
rarely
verstärkten
eingeben
Lama
leute
evo
Berlusconi
Johannesburg
Begegn@@
Eurex
shock
tunnel
Benutzern
Hintergrund@@
pig@@
prevents
halts
adresse
attraction
Viol@@
ktieren
alising
gründlich
skill
pointing
entity
Zugangs@@
And@@
rd
high-speed
ila
harten
Clear@@
Anth@@
defici@@
Welthandelsorganisation
Verantwortungs@@
Aufrechterhaltung
fließen
berge
Nothing
Zentren
entrepreneurs
Künstlern
Gefangenen
CC@@
disagree
einbringen
herself
Airways
erfor@@
tiefen
awa@@
struction
Copy@@
tually
zweimal
stehe
ingo
Redu@@
Beobach@@
opera
integrating
Wag@@
igte
wache
proliferation
Norwegen
incorrect
saubere
yal
sex@@
quiries
Sicherheitsrat
Umstrukturierung
rechnung
schieben
linking
aluminium
Direct
Lanka
befu@@
sident
hinterlassen
Channel
Sofia
ów
advised
Bach@@
matches
Ebenfalls
fähiger
stoppen
chances
büros
Einwände
kommunistischen
ausführliche
UNO-@@
threatening
asting
Barnier
adjustments
drücke
verbin@@
sames
beantragen
Kühl@@
Abweich@@
besitz@@
Behinderungen
personenbezo@@
subjected
kapit@@
netze
coach
anlässlich
allmählich
terraces
enthal@@
Innsbruck
Tourist
WW@@
chts
buff@@
damaligen
klim@@
rer
Fokus
vereinfacht
anfangen
bekam
defeat
artier
layers
dents
Treibhausgas@@
aka
beliebtesten
Ansätze
enswer@@
Vorstand
decrease
veröffentlichte
cans
Pilot@@
Eleganz
ärm@@
genz
socially
latein@@
frische
silent
Arbeitslosen@@
jn
provi@@
laimed
parall@@
RE
Direkt
beding@@
trieb
Zeitungen
mache
capit@@
schü@@
Environmental
Mechan@@
encomp@@
Sicherheits-
breeding
beantragt
Suchen
kämpft
Minderheiten@@
Stefan
MIN@@
Verpackung
Flach@@
Räumen
ansä@@
preisen
territori@@
Sän@@
schaftlich
gradual
brie@@
athon
exam@@
judges
Auth@@
Basis@@
verteilen
Kost@@
wishing
jar@@
Gur@@
1.2
befür@@
annually
Florida
ventionen
on-site
setzten
Geschen@@
ismo
mic
benutzer@@
Fristen
Vall@@
His@@
persönlicher
ppy
cover@@
Gefan@@
gical
Co.
last@@
ह@@
PA@@
ktiert
Nahrungsmittel
clinical
PPE-DE-Fraktion
ка@@
Johannes
Large
dänischen
oom
gleichzei@@
arises
inspiri@@
corri@@
reveal
walt
giant
ark
enco@@
Griff
Grafik@@
tten@@
beeinträchtigen
Millenni@@
TER
С
Vec@@
placement
Hun@@
holung
.....
Indikatoren
vente
Entschei@@
Shop@@
Geo@@
furnishings
aspe@@
Kosme@@
abstained
Doppelbett
pflan@@
OL
terly
interference
Kompromisse
preises
gelände
dio
disciplinary
Frontex
moralische
tling
Sofern
technically
BIL@@
Dör@@
Bern
Nobel
Chechnya
Epo@@
healing
ppt
Entfer@@
Klick
gerer
auftritt
Albert
Reden
igu@@
vernünftigen
ù
Aller@@
retri@@
Downlo@@
stärke
Gletsch@@
deplo@@
akten
Nachbarschaftspolitik
ellers
bicycle
keiten
Gesetzen
banken
jor@@
ummer
ż@@
leiste
kompetenz
MT@@
Demokratien
das@@
partement
op-@@
therapeu@@
scape
Classi@@
supran@@
incomes
stahl
emis@@
adverse
Nachteil
Nag@@
Operationen
büh@@
männ@@
packen
iz
imperative
Infrastrukturen
ли@@
Som@@
Foren
Teilnehmern
ot-@@
chtige
Long
Bluetooth
authori@@
customized
aal
licensed
big@@
criminals
globe
Konstru@@
Kil@@
Bangkok
strecke
zuverlässige
correspon@@
Treib@@
Sett@@
installi@@
Oracle
kr@@
brun@@
Internetseiten
gesetzlich
Repar@@
Alkohol
Mozilla
Euror@@
aktiv@@
Especially
affir@@
dringen
Geburt
crats
distributors
shell
beam@@
Spielern
Kondi@@
touristischen
befreien
Untern@@
nachzudenken
beside
Klim@@
vorhaben
anzugehen
Railway
Generalsekretär
veränder@@
TW@@
Schlo@@
asts
mild
städtischen
gather
ckte
ECHO
G20
sevent@@
frühere
Busse
figh@@
loan
assador
Unless
compan@@
utter
Gleichheit
Balance
grid
koordinieren
Sequ@@
etings
sensi@@
complaint
Athens
Forst@@
heres
painted
beweist
Finanz-
vide@@
tta
Währungen
knowled@@
Pharma@@
accommodations
Säule
carriers
Sortiment
Erika
Souven@@
Diktatur
gesetzliche
umpen
meint
volumen
repression
educ@@
Spra@@
attempting
refra@@
Augenmerk
Block
hütung
Gemü@@
terrain
kü@@
reiten
Any@@
Little
In-@@
thaf@@
ASA
criterion
Romanian
schreck@@
origins
unzureich@@
hearts
grundlage
civilians
höchst@@
NOT
maßgeschnei@@
18.@@
gebor@@
Signale
frau
Upon
energie@@
couples
revolutionary
letztes
samples
Stil@@
zeug@@
resolving
14.@@
optimieren
medizin@@
metro@@
unkt
stra
bün@@
bahnhof
yle
Aufsicht
eron
H.
vorausgesetzt
präz@@
Statute
discretion
City@@
luft@@
Anreiz
Verbrauch
Statut
vigil@@
überflü@@
feier@@
Vulkan@@
boys
σ@@
Criminal
Lob@@
länge
amin
ßes
surgery
Harry
Pom@@
usa
Eck@@
Duis@@
modelle
nia
schien
Minder@@
Bün@@
compens@@
RT@@
Exek@@
keits@@
unvermei@@
tible
ungsh@@
erreichten
gelag@@
exclude
Übertrag@@
bedient
immerhin
yp
harmonised
Lud@@
etzt
bemerkt
Users
Fest
Publik@@
Orientierung
Punta
Redebei@@
mount
ALL
Works
tragenen
Etik@@
mangelnde
effizi@@
Termine
wachen
HI@@
Kub@@
abteilung
Sicht@@
regelmäßige
fikationen
Jahrhunderte
chamber
geordneten
vacuum
Kari@@
träglich
Inflations@@
Local
XX@@
determining
communist
episode
regu@@
ausgezeichn@@
besichtigen
Bruder
kapital
familie
Swoboda
ausgeübt
totalit@@
Religi@@
ova
passive
attach
sincere
Entschädigung
Proc@@
rigorous
spür@@
sus@@
Säu@@
nearest
upload
nutzung
supporters
Gesamtheit
Unternehmer@@
Kleidung
personality
queries
öhnung
Written
Smart
Persön@@
schaft@@
Linux-@@
Officer
Song
o.
spru@@
Konver@@
vorbereiten
SM
Sternen@@
gun@@
promp@@
hinzuzufügen
dauerhaften
figu@@
einlad@@
qu
beruf@@
äler
autonomous
perception
coins
lins
ft-@@
Gesetz@@
intuitive
gig
deter
uty
schwerwie@@
zungen
Transpar@@
automatischen
solu@@
Passagiere
end-@@
was@@
shofs
Lust
democracies
Einfluß
tled
Solidaritäts@@
lichte
Auftraggeber
Chat
Dom
Ramblas
bollah
rts
toll
distinct
ernannt
RS
142
abgestimm@@
Dafürhalten
Solidarity
examining
margin
Früchte
schicht
Messenger
tera
downloads
engagieren
locally
berühmt
accessed
ferry
Vig@@
Solar
Syri@@
comfortably
ttern
beschä@@
Paradies
Terrace
brachten
excuse
-European
verschul@@
bezogenen
Insofern
thwest
element@@
orange
Autonomie
starb
tent
zel
herein
3.5
einsetzt
ño
boar@@
Nichtregierungsorganisationen
acht@@
englische
reciproc@@
Vergü@@
wy@@
circum@@
herausra@@
pillars
Jack
dramati@@
cigare@@
verträge
ffe@@
rounds
tras
guitar
genetically
aki
för@@
Fres@@
Aufgaben@@
Meister
nische
NT
indirectly
ceremony
ön
128
zunehmen@@
investitionen
gie
artigen
pedia
restrictive
dryer
ometer
renovierte
Crus@@
Einbindung
begab
Gab@@
Mira@@
erzählt
tom
photograph@@
fungs@@
modular
Mé@@
doz@@
chip
Völkern
strom
clas@@
Newspapers
Vot@@
Möbel
bekräftigen
erkennbar
cere@@
envisaged
ude
Nachbarschaft
Bulgarian
WHO
thou@@
appearing
gesendet
audiovisu@@
perfe@@
plu@@
Studies
römischen
findung
has@@
echter
lifts
Gä@@
Naturkatastrophen
invoice
instant
Cru@@
beratung
embry@@
Quartal
nahen
Erneuerung
reactions
angeführt
Maßstab
pine
Gläub@@
theoretical
Zeile
Banglades@@
strikes
divisions
andau@@
Anpassungen
oph@@
IGC
gen-@@
ños
geholt
procedural
mord@@
ziehung
zugreifen
Zealand
quick@@
Ganze
pf
SOL@@
taire
ás
identifizieren
Hongkong
tionelle
imagin@@
protective
formerly
corporations
koordiniert
delle
Mitarbeiter@@
dis
yield
tox@@
ò@@
cular
Dür@@
urs@@
Campingplatz
scrutiny
Musiker
dynamischen
off-@@
Vegas
anci@@
Dienstes
workplace
quo
protests
drit@@
vorzubereiten
Klo@@
MM@@
Minist@@
literally
Lobby@@
inson
text@@
securing
seitdem
bücher
Quer@@
Arri@@
P.
Galax@@
cup
Beförderung
Megapi@@
Rate
keyboard
drän@@
nette
Protok@@
ition
billigen
german
kov@@
segments
terra@@
zusammenzu@@
hosti@@
patch
Freedom
headed
verkauf@@
folk
behindert
dierung
steigert
Ja@@
enberg
inierten
fortzusetzen
zir@@
nai@@
Turk@@
cils
sowje@@
CIA
Downloads
Tie@@
Gefähr@@
Sehen
World@@
organs
Laman@@
kriti@@
prejudi@@
Spann@@
fehler
wid@@
Controller
32@@
Willi@@
Umgeb@@
Schottland
echt
Loch
bewundern
convincing
Kei@@
visas
स@@
confi@@
webe
aving
genutz@@
schwäch@@
Gültigkeit
penet@@
Preis-Leistungs@@
Netzwerke
disastrous
legisl@@
erfassen
arme
PSE-Fraktion
buttons
trages
Erstellen
downlo@@
compromises
Commander
äußer@@
congratulating
concludes
Angeboten
latt
Rechtssicherheit
validity
Kameras
DNA
Brand
Keram@@
jed@@
enhancing
foster
interventions
ageing
altitude
Stellungnahmen
Ansprechpartner
endo@@
Disabled
ý@@
beglückwünsche
indire@@
cathedral
hunting
static
ORE
architekt@@
geschmackvoll
arena
formally
uner
execute
Memory
wet@@
Schnit@@
credits
lassen@@
Lauf
gster
erschüt@@
Night
schaftlicher
investig@@
Kolle@@
ländischen
ologen
decor
geschlossene
Beschaff@@
länen
sacri@@
Cardassi@@
portion
hir
Kompromiss@@
Andro@@
vielfach
Rohstoff@@
Resultat
raums
dev
Chancellor
WiFi
formali@@
monopoly
accommod@@
uniqu@@
1972
Direktor
mitglied
SPA
pedestrian
Quadrat@@
Hear@@
festhalten
Production
Ungleichheit
categ@@
note@@
routine
Hoffnungen
double-@@
Whilst
productions
sorts
Gibraltar
zügen
variables
Kloster
geschütz@@
Herstellern
admitted
dered
pushed
unum@@
ave
abzulehnen
Breite
zivilen
Heu@@
ersuchen
wertvollen
ALL@@
py@@
blicke
Solarium
Vorbe@@
cotton
modus
Mensch@@
Modell@@
Mitgliedsstaaten
Haushaltsjahr
Looking
zza
Band@@
fier
FS@@
Frau@@
ever-@@
Inanspruchnahme
Erschein@@
insert
stad@@
onisten
erfahrenen
letter@@
Enter
strahlung
ventions@@
bedürfen
Demokratisierung
6th
adet
preference
Schalt@@
ehl
consolidated
Vorbehalte
Angebot@@
Begeisterung
berau@@
fed
muslim@@
mobilen
depic@@
missi@@
Obst
tice
Ostsee
Folge@@
Schauspiel@@
cling
auto
galleries
vian
perceived
unilateral
partner@@
certificates
behei@@
esk@@
Petitions
Latvia
gesenkt
Kalender
5000
anch@@
anti
Formel
gebnisse
tat@@
neo-@@
Komplexität
dichte
iga
tonight
Milch
Entschließungsanträge
Piet@@
versi@@
train@@
overwhelming
apel
morali@@
Flüchtlings@@
Volkswagen
urop@@
exclu@@
fangs@@
Domain
Navigation
Os@@
Gegebenheiten
verschlüssel@@
Again
arly
innocent
verify
bör@@
Rücken
abandon
Ganzen
Mario
intimate
optionen
hoff@@
Erkrankungen
gerte
rungen
ro-@@
grenzt
erkenn@@
diversen
exi@@
Event@@
Trav@@
ar-@@
Italiens
philosoph@@
carri@@
enzi@@
roten
Cash
doppel@@
oll
wanting
Catholic
Sozialpolitik
Gegenwärtig
nisch
preservation
außergewöhnlichen
Zentralbanken
modernsten
Jobs
worried
lity
Canal
dramatically
steigende
rounded
hip
го
Ukrainian
Dutz@@
windigkeits@@
stabilen
Fahrzeugen
serie
inviting
anzen
Später
lingu@@
riert
ounced
burning
non-governmental
führend
sche@@
öst@@
vities
tschechischen
sonni@@
beleb@@
norm@@
sib@@
gins
bearbeitung
Learn
alternativen
Beauty
wished
agra@@
bildungen
erung@@
assessed
attraktive
schätzt
Democracy
aufweist
Bundesrepublik
niedrige
reti@@
Höhepunkt
Zap@@
standard@@
tles
Schluß
schätzung
arest
listet
Klang@@
dürften
vene@@
kopieren
chno@@
Festivals
ausmachen
IF
stimulus
1.1
sequence
transported
läufi@@
Hoheits@@
westliche
Gene@@
aran
packt
HA@@
geschützten
uno
refusal
Streitkräfte
grundlegend
serklärung
Kanäle
transatlantischen
Erwerb
alog
OC@@
Redezeit
Gebi@@
Son
gehand@@
Pots@@
sympathy
gemeinschaftliche
Anyone
Potential
fundi@@
aro
dynamische
dicht
DS9
geräumigen
reiches
Forscher
baute
studying
tank
Persönlichkeiten
Konsumenten
immen@@
mensch@@
unternehmer@@
dek@@
Fäl@@
Nichts
tery
chips
safeguarding
minibar
unanimity
ausgewählte
surfaces
annehmbar
Störungen
Creative
Ausstellungs@@
ästhe@@
09.@@
Smart@@
Gesundheitswesen
istan
otive
skri@@
Kampf@@
Entwicklungspolitik
Veter@@
scripts
SQL-@@
deployment
readers
ät@@
unterstrichen
laufende
Partnerschafts@@
stairs
unweit
Zah@@
Depending
Koso@@
Against
Neither
sachen
24.@@
Raf@@
dahingehend
mitt@@
Canadian
jan@@
Straß@@
gmati@@
Biom@@
lieferung
missible
far-reaching
thinks
accompanying
Richtigkeit
UK@@
energies
Zutaten
Höhen@@
verlust
rahmens
DO
Dr
ignano
wiederhole
exploited
20.@@
benachrichtigt
buyer
Häufi@@
gründe
profession
Gesetzgebungs@@
ank@@
verlängert
verbindliche
Linken
basierend
statute
zügi@@
bugs
Flüchtlingen
beobachtet
council
enten@@
witn@@
night@@
gress
amtierende
vibrant
Jacuzzi
lichere
RF@@
Help
Besetzung
bekämpft
Zukunfts@@
vertical
unified
artic@@
friend@@
Kapitalismus
Krimin@@
ρ@@
tzen
escal@@
Nachfolger
IND
consultations
50-@@
ply
nings
österreichische
Kä@@
zn@@
abzuschließen
Wu@@
Pent@@
paint
Entdeckung
ausgestellt
Zivilisation
ache
Außengrenzen
ité
Political
fehl
vorzuschlagen
A5-00@@
dion
Kongress@@
proves
Anzeigen
estro
Stim@@
Kernenergie
Manchester
proportionate
GM
hof@@
er-
direkter
tori@@
Direk@@
classified
Zie@@
Statisti@@
baths
anism
nightlife
Germans
dimension@@
configured
serial
Flüssi@@
milli@@
außer@@
begriffen
encing
solidar@@
ruf@@
Nit@@
diesel
aiming
Photoshop
endeavour
gemütlich
Kindes
eig@@
aver@@
glas
bets
voranzutreiben
jenige
wisdom
Kurs@@
fragile
teure
Beitrittsverhandlungen
sache
Starfleet
Blizzard
gul@@
Ferr@@
ausgebil@@
endorsed
Recently
Blau@@
Dich@@
gresses
Kast@@
gesu@@
fünfzehn
spark@@
Meinungs@@
austerity
ox@@
tei
amtierenden
fläch@@
Bavaria
lifting
ego
Hunderte
EZ@@
costly
Geschäftsführer
vorberei@@
Interpretation
versetzen
Gewer@@
worauf
ammern
Hollywood
Hans@@
Publikationen
Porsche
Buchstaben
produc@@
verweist
landing
anyway
bury
memories
spiri@@
vollkomm@@
े
beachtet
smallest
pull
safer
Ferienhaus
drew
wunderbaren
documented
pricing
abgeschafft
mittel-
Lady
zufriedenstell@@
Lissabon-@@
Domin@@
deciding
perfec@@
umping
Along
Zinssätze
wash@@
probe
Landwirten
Bewegungs@@
Phan@@
zeile
gescho@@
micro-@@
Gent@@
expliz@@
mac@@
zion@@
Argent@@
legislativen
inet
Nul@@
Back
conce@@
chart
22@@
1980s
Budd@@
guest@@
stitu@@
winkel
berry
Norm
tiers
bewahr@@
limiting
ateway
dorthin
gewöhnliche
pending
anne@@
Autorität
Glücks@@
Sw@@
confirms
author@@
popularity
teres
colo@@
Balkan@@
bottle
beherbergt
elung
Impf@@
lush
Beispielsweise
Congo
broadcast
Öster@@
medic@@
Rohr@@
int@@
Word@@
Sydney
rent@@
Weiter
Zucker
Alex@@
~
haz@@
7th
Magazine
Imple@@
oberfläche
Pakist@@
freiwillig
behold
neut@@
Valu@@
KE@@
Gutes
demonstrations
Medina
Moldau
brilliant
Strafgericht@@
abgel@@
Durchführungs@@
gefahren
schwe@@
spac@@
relie@@
writers
vereinbaren
Toleranz
Dal@@
detention
developer
ergy
diam@@
Zentrums
Colombia
Speed
racht
ardo
gemon@@
Standorten
Still
Cul@@
Immunität
estic
transfer@@
halben
modification
ausgeliefert
indischen
gigan@@
rumän@@
Produc@@
Stars
Harmon@@
improves
tseite
massiven
bereitgestellten
trans-European
Investi@@
Kamer@@
Wanderungen
Alb@@
750
bestraft
ront
acu@@
punishment
besteh@@
Voraus@@
verschärft
six@@
english
ext
Artikeln
lagen@@
steine
counted
torial
aktionen
gessen
abschluss
admire
princip@@
omo
Dunk@@
begrenzen
cho
blockiert
TION
indications
wertet
Artikels
praise
Hilton
dead@@
textiles
abschließen
Infrastruktur@@
Kanz@@
ont@@
path@@
forderungen
adjacent
Clients
grafischen
ausgenommen
geographi@@
Tastat@@
gebucht
Etage
UP@@
versprochen
festgehalten
Akademie
fizierten
transp@@
Zustellbetten
deadlines
bedauer@@
emphasize
Unterricht
Rollen
markiert
ا@@
adi
Wandern
gui@@
foo@@
Diejenigen
об@@
einzuleiten
ordering
stufe
correction
SIM@@
ISA
ruins
thereof
Prince
portable
positives
classification
irgendeine
KL@@
Turni@@
Universi@@
Alkohol@@
faktoren
Kreatur
counter-@@
hec@@
Seattle
Bolkestein
obstacle
Ära
Giovanni
Rose
uk
horn
Oc@@
listing
snacks
Ziels
beeindruck@@
essor
sweise
introduces
Pay@@
angemessener
seller
diente
Anwendungsbereich
Konvents
BB@@
4-0@@
europas
Olympischen
Königreichs
road@@
gemachten
Verpackungs@@
stechnologien
responding
Gepäck
situationen
geisti@@
verlu@@
Down@@
Beträge
alpha@@
lend
Palast
Aufklärung
inwieweit
critique
iranischen
ermittelt
settle
noble
Windows-@@
elas@@
legend@@
verordnung
gency
kunft@@
Eas@@
Verwen@@
aufhören
rear
construct
schwach
trials
there@@
23.@@
posing
cco
BE
europa@@
kreative
visibility
scri@@
definitions
ACE
limitation
Zuliefer@@
Monaco
guilty
standardis@@
vereinbarung
Twitter
ierter
sentation
bestanden
Akzeptanz
tanks
configu@@
surance
advisory
ausgeben
sends
Gewährung
honest@@
größ@@
geschnitten
anto
Unterstütz@@
zte
gratuliere
anspruchsvolle
cream
loads
Guatemala
tout
herrschenden
Datent@@
Weltkrieg@@
ergi@@
wis
ystems
dish
Gegenden
Wissenschaft@@
sämtlicher
matic
Benz@@
38@@
rors
übertrag@@
immunity
market@@
ausreichen
witnessed
Gedanke
Strecken
ietet
Div@@
kunfts@@
audiovisual
rump@@
lun@@
delegations
Cards
Werken
wirtschaf@@
Assozi@@
volumes
meaningful
Geldpolitik
Freizeit
künften
Scandin@@
hony
Nap@@
ao@@
bewegungen
profitiert
traditionally
tasty
anton
zenten
commands
bewäl@@
subjec@@
abhängen
Virtual
annten
completing
Club@@
multilateralen
morgens
durchschnittliche
Fau@@
diet
Lizenzen
Gleichwohl
paragraphs
Gift
Archit@@
ukra@@
sprin@@
Bedürf@@
rums
gefangen
Eurocopter
rachten
2.2
region@@
distinguish
Organis@@
aments
ausgeprä@@
courtyard
Aufnahme@@
Lieblings@@
pflegen
identifying
diesbezüglichen
schlimmsten
azione
advan@@
oi
psychological
sy
complementary
Rechen@@
Charakter@@
attraktiven
Rica
stuhl
ausgerüstet
signifikan@@
Hydro@@
Szene
boutique
Priv@@
sozial
wandeln
medicinal
painful
tariff
apped
modernisation
Schließung
Viel
Afrikas
kümmert
gasse
Bä@@
Inzwischen
endeav@@
trinken
Bestimm@@
Guinea
henden
controll@@
Agri@@
Präsent@@
TRA@@
deckung
rh@@
Ple@@
unmittelbare
kapazität
illness
Europäisches
bund@@
insur@@
bunal
kommunizieren
transpar@@
Therapie
salle
ticul@@
Hindernis
Kling@@
ART
Fusion
Pres@@
fulfil@@
Promenade
Trainings@@
Major
FREE
erho@@
worlds
CO2-Emissionen
dark@@
serb@@
Depression
Nas@@
†
remedy
Romanti@@
screen@@
unic@@
short-@@
eive
igration
omas
Sammel@@
disch@@
westen
invasion
neutrali@@
reluc@@
konkre@@
mare
Imperi@@
Gehir@@
Etagen
consi@@
anwendungen
optimiert
Masse
ausgewogen
न@@
legacy
mood
Oper
Vorsicht
Schwerpunkte
frames
virtuellen
Clau@@
einrichtung
Bedrohungen
lv@@
periodi@@
Fülle
ā@@
mär@@
tendency
Auslands@@
quoten
dop@@
omen
Tagungen
chair@@
FP@@
diplomatischen
Zwischenzeit
Canary
Images
Sustain@@
Sahara
ehr
anzusehen
Nutzern
inland
opol@@
protot@@
Acti@@
gle
Daraus
modifications
Price
wehr
farm@@
siedlung
intelligente
toren
astronom@@
folgte
Übermittlung
spreading
Monum@@
hair@@
intent
terie
GEN
irrespective
priced
statt@@
Expan@@
Mathemati@@
Zeitalter
timm@@
Verhinderung
vri@@
Designs
wurf
liv@@
Shutt@@
Delta
definitive
eventuelle
efs
Updat@@
desc@@
baggage
sele@@
reihe
Jahreszeit
fabulous
vergleichbar
wheels
Americ@@
repar@@
Europe@@
fassten
Visum@@
sleeping
197@@
problematic
ried
favor
Cruz
Monats
dioxide
Whatever
assen@@
Warsaw
distinctive
Crist@@
betreut
10.000
Heiz@@
Auflagen
consolidate
laufend
Elektriz@@
smoke
exotic
Katastrophen@@
suits
en-suite
fän@@
Las@@
dle
Trä@@
Kyoto-@@
stants
très
bekanntlich
mittelalterlichen
Turm
Benutzern@@
fasc@@
Championship
druckt
iell
ausgehend
ausdrück@@
wirksamer
Meinungsäußerung
samt
geräumige
reservieren
tum@@
Schritten
FT
Schwach@@
seas
Folgendes
prerequisite
agu@@
stent
Kriterium
Endes
Multi-@@
Fam@@
opping
Darauf
regelungen
Schätzungen
slide
anien
Davon
ake
zurückkommen
Oliver
schriftlichen
setzungs@@
herrschaft
Spiels
Dry
Chris
compet@@
undi
wirksam@@
stream@@
gambling
coastline
gerlich
Ansprüchen
Mitglie@@
stas@@
OM
gezahlt
blocking
Johann
Malaga
Bestrebungen
weal@@
Durchschnit@@
Holding
wholes@@
S-B@@
affen
pflanzen
Scrip@@
recru@@
Beleu@@
uta
Befu@@
abzugeben
yiel@@
birthday
Vertrieb@@
unglaublich
aboard
Sozialisten
kontra@@
exe
Trin@@
lling
Protot@@
ultra-@@
cattle
evaluated
Sitzungsperiode
administrator
geschenkt
Dienststellen
stically
Annex
stück@@
Kommunikation@@
ICH
gestrichen
kat
Tuscany
Jordan
Folter
Kok@@
tied
μ@@
Zeitschrift
reimbur@@
verhandelt
Ticket@@
disabilities
не@@
Erdbeben
beginn
disappear
Applic@@
af
Hob@@
scheinbar
Verbin@@
lings
sere
24-hour
ith
erholen
casting
Anschließend
aufrufen
defin@@
dität
Subje@@
Lange
persu@@
jazz
dairy
Cohesion
verwandeln
Herzlich
pushing
Formate
genommenen
uit@@
sth@@
concep@@
Ih@@
-Sterne-@@
Active
Meas@@
Check-@@
broadcasting
clauses
protects
selts@@
etto
reaffir@@
Pfad
aggressi@@
home@@
ole@@
Attra@@
Behandlungen
Genauigkeit
veranstaltet
pets
LI@@
tiker
Zyper@@
emit@@
apar@@
Pazi@@
Psy@@
Posselt
Wäscheservice
Ungleichheiten
zusammengestellt
doc@@
lov@@
betragen
escap@@
Algeria
Haltestelle
detect
Hotelzimmer
effizienter@@
Chinesen
viewer
dereg@@
merken
Nachteile
ehren
Bürgerrechte
mediterran@@
Lee
themen
Häusern
Hochschulen
contam@@
perfekten
damp@@
Überleben
Princ@@
flora
conducting
Temperatur@@
Secure
Shuttle
draws
ons@@
spam
aker
contro@@
Flächen
Files
personen
Comfort
oasis
bestätigung
linder
aba
Allein
erzeugung
privater
RA
Nordkorea
sichten
erweise
problemen
möglicher
Brown
gewöhnlichen
Erfassung
Tier
E.@@
danger@@
wild@@
ane@@
ansprüche
kum@@
Konzern
nav@@
DC@@
Blei@@
grafische
х@@
leuten
1971
verdanken
in-house
ggen@@
rieben
arre@@
Zertifizierung
retained
zweit@@
onna
vermieten
beunruhi@@
enswerten
temporarily
Räumlichkeiten
hygiene
Defizit
π@@
Schlußfolgerungen
jemanden
Temp@@
metals
brea@@
card@@
fitting
Zigare@@
gebrachten
versorgen
pots
tranquil
south-@@
renewal
tiveness
gelan@@
Frühstücks@@
economical
Additional
fridge
Fan
thur
miner@@
Vermögen
bürgerschaft
cooperative
abetes
erender
beeindruckende
consu@@
einbeziehen
fizierte
Vorgang
DE@@
Arbeiter@@
erzielte
Hague
Aufpreis
durchschnit@@
64@@
Amat@@
Blä@@
Beobachtungs@@
Wissens
verbundene
vign@@
klarstellen
Want
Equipment
č
enforce
Un
italien@@
dants
künstlerischen
fried
erhebt
econom@@
Jet
läufigen
bege@@
ktivitäten
sau
passion@@
couldn
coura@@
Somalia
Ala@@
traf
feasible
energe@@
Portfolio
sparteien
ideology
stle
Sites
heimischen
exacerb@@
Übereinkunft
trächti@@
FTP
compiled
passport
Points
mma
herbei@@
surf
biologische
Beau@@
zulegen
Gestalt
irgendwann
Mercosur
confidentiality
Tempel
Wri@@
β@@
aman@@
multinational
lemma
Broschür@@
cabin
veri@@
fairer
cians
wirst
condem@@
etti
Stephen
untergebracht
geschul@@
chie@@
versprechen
Translation
Machine
continuity
gefertigt
frank@@
fluss@@
Zak@@
Tiefe
gangene
Hof@@
trendy
Orchestra
servatory
echo
dringlich
atta@@
Stabilisierung
Ds
Some@@
diplomacy
Cafés
le-Distribution
turel@@
automobile
burn
Parking
fulfilling
Century
amento
Schuh@@
Rettungs@@
ğ@@
comprehensible
geld@@
Schlacht
navi@@
Iron@@
Has@@
inch
Erweiterungen
utz
schwarz
Tok@@
funktions@@
irgendwie
Erhebung
dei@@
Lufthansa
existi@@
2.1
erstre@@
zuführen
Küh@@
Conci@@
safeguards
thick
quoted
shes
Phasen
encourages
mord
Instabilität
Finanzielle
Behandlungs@@
Tschetschenien
enses
Trock@@
wenngleich
responded
abschließ@@
humane
keln
edo
Kart@@
anzuerkennen
Versicherung
Gemeinschaftsrecht
timing
riffe
donor
stisch
optimized
einhalb
prescri@@
kultureller
menden
Croatian
ло@@
mächtigen
evenings
tration
höherer
scand@@
Umstellung
stür@@
model@@
Manuel
ATE
geschnit@@
lateral
Verhaltens@@
exzellente
Ball
Lyon
households
13th
Anleitung
som
tima
shorter
enni@@
Vern@@
pfei@@
Ec@@
Guantánamo
zuständige
verschi@@
Migranten
dimensional
lasten
erwarte
Funktionsweise
eigent@@
Layout
Kongo
Borg
Reichweite
ueber
mau@@
soren
stellbar
belastet
confidential
assessing
Stern@@
änen
überwälti@@
Schlacht@@
Script
simulation
Herzegovina
even@@
lieferungen
UT
Leb@@
Industriepolitik
congress
flexiblen
machung
Felsen
stadium
erning
Secretary-General
Eingabe
Mitgliedsländer
zugang
resear@@
Heidelberg
unge
Drucker
Fischereiabkommen
stock@@
SilverFast
chet
Marx
vertrag@@
amendo
sh-@@
10th
andin@@
Ergän@@
attacked
Christi@@
settlements
Instrument@@
Aufstieg
incidents
femin@@
azz@@
ateur
Anreis@@
oro
gathering
formuli@@
Para@@
holt
forestry
Netto@@
Model
impressed
eping
firma
ographie
Gom@@
Begrenzung
Inspi@@
bestehend
aston@@
Verwand@@
Fundament
Änderungs@@
port-@@
St.@@
Boutiqu@@
opou@@
Fiel@@
schlag@@
rassi@@
geber@@
akadem@@
definite
lierung
Swe@@
sided
Bek@@
experiment
proch@@
BSD
CV@@
drängt
erhielten
Konfigurations@@
stetig
Mön@@
Mannschaft
locked
Zusammenfassung
Six@@
valued
Verw@@
Metrop@@
Unit
griffs@@
vollsten
propaganda
Pod@@
einrichten
tierenden
dak
Nachrichten@@
plot
Kohäsion
erup@@
Begleitung
architect
Bandbreite
Koch@@
roler
DEN@@
ungsphase
fortsch@@
earthquake
suppor@@
Poettering
nachfolgenden
Bike
unkten
German@@
problematisch
Jen@@
organising
schlicht
Fortunately
zuhalten
Modellen
Bologna
ranks
ffern
uts
Graphi@@
ttaus@@
Entdeck@@
platt@@
opt
Entscheidungsträger
zug@@
batteries
recur@@
sade
schlim@@
IK
satelli@@
righ@@
schweigen
ergänz@@
zern
MB@@
ю@@
marble
imbalances
soll@@
übertragung
dropped
verknü@@
Minim@@
municipality
kritisieren
bition
Vertrau@@
auseln
veau
prozessen
Dolomites
schal@@
Mini
behindern
agn@@
heimer
Mittagessen
sung
llo
Bele@@
Objective
gewaltige
etwa@@
Import
pir@@
iors
cane
antique
Func@@
debts
Continental
Hygi@@
Gesprä@@
Verbündeten
zeh@@
Fotografie
Finanzminister
Steel
YouTube
Evalu@@
exakt
Aparthotel
NA
Button
Legi@@
toxic
Eich@@
Krem@@
за@@
defines
Logistik
purchases
Tepp@@
tritts
Gewerk@@
Barro@@
park@@
übernahm
Erziehung
vorgesehene
recognises
Cancún
andel
anticipated
ratify
understandable
ure-@@
pit
erhöhte
Sv@@
bedded
LabVIEW
wälte
wahrgenommen
Minde@@
magazines
Dolomiten
toys
Tabellen
gieb@@
nahe@@
berechti@@
entre
mware
Beibehaltung
ggf.
animation
harder
Nepal
CPU
Verlag
köst@@
ssi
besuchte
Domini@@
cation
Texten
heruntergeladen
encountered
beauftragte
hebung
anerkannten
Terror
Griechenlands
widerspiegelt
Wand
linen
barrier
beh@@
grey
ny@@
preserving
veness
Konsolidierung
Hybri@@
мо@@
viruses
Economy
Finn@@
Steinberg
attentive
Mic@@
attitudes
employ
County
visten
unzählige
japanische
Labor
Haut@@
Stern
komplizierten
demon@@
Ausschüssen
aph@@
kenne
erbringen
24-@@
ligence
Datens@@
sored
einigt
kus
Auskunft
Erkenntnis
mietung
verantwortung
sprung
spreis
conservative
dex
Motoren
Estland
aufhalten
captured
ь
GA@@
Us
Wikitravel-Benutzer
Revolu@@
transi@@
versuchte
ThyssenKrupp
ump
dealer
hosted
varying
tigsten
Rohstoffe
gehalt
bemü@@
gebo@@
gliches
potenzial
erstklassige
macroeconomic
transform
dying
coup
Kompetenz@@
entary
partment
Stab@@
offer@@
α
zonen
aufgeführten
schwä@@
ethn@@
jana
übergreifende
broadly
Leon@@
asso
tigkeits@@
Chianti
κ@@
Hauptziel
Nan@@
Reparatur
floods
enemies
seed
Shops
spati@@
forder@@
Workshop
merchan@@
Vide@@
getre@@
Gemeinschaft@@
husband
Darlehen
Klaren
WE
klick
ünsti@@
befreit
Reisenden
trug
Screen@@
ktem
Montreal
Skand@@
45@@
ITY
ancies
Management@@
Machen
measurements
streiten
Misch@@
unüber@@
YORK
Engine@@
eso
eno
Info
.-
Castro
midst
oming
esenen
avian
ranking
Maus
aven
Cash@@
geeinigt
revol@@
Arbeitszeit
qualification
vereinbar
cons
endums
Welle
haber
wins
Unterbrech@@
Wolf
amoun@@
medien
experiments
Police
closest
limm@@
N-@@
aufkommen
Beschäf@@
sfer
Rechtsrahmen
activists
Organ
stungen
boy@@
aked
kost@@
.NET
onian
Plattformen
Offic@@
sic
Wollen
verläuft
Mercure
Bestände
israelische
offizi@@
geheim@@
PVC
Pisa
thotel
ow@@
Militär
demselben
Wartungs@@
Hinzu
wohnt
debatte
transnational
mé@@
verkörper@@
need@@
vin
maßgeblich
Verschlechterung
erzählen
detected
tigste
10.00
kostenfreien
2050
wood@@
nier
auswahl
Konvergenz
privilegi@@
ereien
bie
ASEAN
Sey@@
komplizierte
imagination
potenziellen
Prüfungen
korrigiert
Malware
partnern
TEN
crimin@@
organisms
Mix
Wohl
senses
coating
Kamin
prison@@
CD-ROM
ces@@
hardt
christlichen
warrant
geschicht@@
westlich
refreshing
rocks
holz
horiz@@
U.@@
Leiden
privileges
Far
verursachten
Vollständigkeit
warran@@
Erwachsenen
Korrektur
verlängern
wünsch@@
tops
Sozialpartner
diagnosis
Baden
stationen
inspections
Anleger
linear
ld@@
dossier
bik
terten
zwecken
Schwi@@
Ministerpräsidenten
timent
Astrium
Hochschule
abor@@
schmer@@
Medium
Spock
numer@@
Zusagen
ott
Salon
versorgt
atar
gence
Blü@@
schrei@@
Gebäudes
gemeint
Klassen
Mineral@@
solarium
definitiv
extremis@@
Schnee
aufrechtzuerhalten
random
launching
Volk@@
Ersten
Reno@@
tot
vorzugehen
Harmonie
journalist
denkbar
cel
accessibility
grass
promin@@
hielten
ret
versu@@
formity
modul@@
Kath@@
Berechn@@
Cardiff
Aar@@
Lab
Fou@@
genetisch
én
Qui@@
Obst@@
slowak@@
gängig
gelegentlich
Tauchen
stituted
voltage
zurufen
ernde
rewar@@
Öff@@
logan
pressures
riften
weakness
mah@@
Wh@@
initiate
NH
Associ@@
begeben
Spannung
ICA
Franzosen
Cleaning
gnü@@
Gremien
Norwe@@
Impul@@
discipl@@
Komplex
Base
Jord@@
ckness
Upper
pository
Wärme
ichtungs@@
ermög@@
zuverlässi@@
stres@@
retention
Ali
tim
Nordirland
Catalunya
Á@@
dachten
Note@@
splan@@
folgedessen
handi@@
help@@
Me
ubs
fert
Geschlech@@
aults
verwandelt
entnehmen
sätzlich
Neut@@
Oster@@
Müt@@
oked
widerspiegeln
kne@@
tien
Oran@@
Regierung@@
bold
Alz@@
bedaure
entsprechender
eks
ula
juristischen
kom
adar
stabil
anschauen
Herstell@@
demnächst
IRC
liebt
v.@@
Südtirol
our-@@
griffs
semin@@
aufgeben
Gothic
widmet
Periode
Mozart
Subsidiaritätsprinzip
Erwäh@@
trace
Core
Wagen
CMS
commodity
mutz@@
enna
gelassen@@
Einsparungen
Konferenz-
intu@@
aufnahmen
reserv@@
statutory
kking
Property
1930
particip@@
Seel@@
plung
lack@@
Diversi@@
competitions
Harv@@
Alli@@
Quite
unen
Ursprün@@
fastest
heav@@
conditioned
backup
Doctor
Slovak
Überwindung
eb
Ermitt@@
Secre@@
Franç@@
Fahrzeu@@
Amerikan@@
sky@@
PT@@
disc
Appell
stretch
transparente
verbrauch
Spiegel
parent
Explo@@
gewalt@@
Soft@@
Fahrrad
voir
mittelständi@@
edly
Messen
Birma
Upgrade
beugen
isons
stellvertre@@
Design-@@
esthouse
Cambo@@
22.@@
verwendete
bend
e.
Vati@@
scan
respec@@
Monitor
lov
manually
adop@@
14th
artikel
Pakt
anding
Seminare
inappropriate
bilaterale
Nic@@
Lamp@@
tagung
entfernten
arbeitenden
Lig@@
Emer@@
Competition
vegetation
Sicherstellung
recreation
enzo
ström
withdrawn
Aussehen
priori@@
einheimischen
eggs
Tragen
Napole@@
Fuss@@
Handhabung
successes
.jpg
Thessaloniki
Sandstrand
continu@@
oberste
dose
Map
Jahrestag
Technologie@@
Preises
G8
ograph@@
vorherseh@@
Klassen@@
Grie@@
Kontinents
Iz@@
Vö@@
ernity
Dres@@
Warnung
collecting
Wiederein@@
zar@@
disku@@
topical
nee@@
hoping
shut
long@@
verteidigt
unterschiedlichsten
pursuit
katho@@
spir@@
nder
kehrungen
Rie@@
überdenken
Geor@@
grain
öser
deutsch
Spekul@@
Ehe@@
educated
tücher
eiro
ida
Ergeb@@
liner
convey
fahrt@@
weiterentwickelt
Lande
Arbeitsplat@@
gee
beheben
Ign@@
neighb@@
Inc.
Temple
untersagt
dum@@
steil@@
Inneren
acou@@
Zahl@@
1.000
wöch@@
Flor@@
inas
plo@@
Fotografi@@
Geschäftsreisende
Zweifel@@
screens
Below
Moz@@
bow@@
Allgemein@@
ritten
Mär@@
Nazi
prises
Donn@@
foodstuffs
energi@@
Laundry
Bemühen
Exempl@@
fu
Wunder@@
territorialen
slight
schiff@@
Bibliotheken
disappeared
Terrorismus@@
weaknesses
Cape
Mut@@
attending
QuarkXPress
transl@@
dirty
beauftragt
beloh@@
griff@@
sp
Tschech@@
definierten
speisen
Symb@@
Scottish
strukturellen
chtest
installer
Viren
stresses
vernünf@@
Ecu@@
beschleunigt
eliminating
Krank@@
rasse
Proven@@
relevance
Dame
injury
hervorzuheben
ν@@
quiry
Dekor@@
enfor@@
Unser@@
macher
erbe
galt
stellern
Stoffen
Kompromiß
café
sortium
steep
usamment@@
minded
affair
Verkehrsmitteln
ers@@
satis@@
genocide
liquidity
Biokraft@@
Mare
erbare
Multimedi@@
alb@@
günstiger
precautionary
Schne@@
Angehörigen
anymore
tub
Gerü@@
sensors
live@@
ito
Schü@@
A1
Angestellten
desert
assungen
recti@@
agua
bookings
hochrangi@@
beunruhigt
Natura
Wilhelm
sympath@@
thrown
networking
Badewanne
vot@@
Schwächen
Kommissars
Art@@
ussy
axis
spiegel
Garage
happ@@
Gewähr
positioned
Delegationen
indul@@
Viertens
Clean
einfaches
passage
motivation
stence
halle
rhetoric
Male
pedition
Konservativen
forever
101
grö@@
Nächte
ा
Sisko
Mono@@
Fire
¿
density
beihilfen
hinnehmen
concessions
verzeichnis
wet
Torre
vereinen
gentle
Al-@@
dra
deliberately
YOU
Filmen
K.
Egyptian
Strafe
geable
Asyl
bedeutender
ALDE
prostitution
schreiten
nutrition
ört
extremen
Law@@
Euro-Mediterranean
Traff@@
vegetable
zufriedenheit
gewaltigen
Angola
blauen
Profile
konzer@@
EI@@
apo@@
ASP
Ents@@
Questions
thirty
Nachtleben
einstellungen
Likewise
anscheinend
broadband
Daneben
Gardens
Garanti@@
abel
Wid@@
pretext
Articles
Niel@@
Standor@@
hauses
Chemikalien
verläss@@
bauer
Anlage@@
stered
lieu
Algerien
List@@
1,000
belebung
overseas
convi@@
entziehen
coordinating
offensich@@
progressi@@
represent@@
ückt
Aufstellung
peripheral
belast@@
Fundament@@
Kriege
Ausnahme@@
san
gangen
Palais
municipal
chio
Einerseits
shame
sprachige
idylli@@
stenten
ausgegangen
Beschränkung
outermost
Reda@@
asten
mie@@
instances
establishments
crash
buffer
geschah
berechtigte
`s
archives
versichert
Erwachsen@@
persuade
SEO
ämp@@
Museums
katastrop@@
erzeugnisse
Momente
OSCE
wearing
graben
Meilen
klo@@
glicher
repräsent@@
chtig
zügig
persecution
äume
pension@@
Japan@@
Gewässern
Dokum@@
Autob@@
muster
umbrel@@
family-run
screening
specul@@
osteuropäischen
organizing
glän@@
belastung
blich
nächstes
Einleitung
void
Mitbürger
formulieren
mption
conscience
gewähr@@
vising
yacht
wissenschaftlicher
artiges
Turin
Stay
Gemäl@@
positively
Fax-
do-@@
03.@@
leisch
zucht
aufgegriffen
cion@@
ologies
105
Gesichtspunkt
Verzeichn@@
Ansehen
uneingeschränkte
Chirac
tenden@@
ме@@
Rechtsprechung
Typen
Verhaltenskodex
modernis@@
protectionism
lifelong
auction
Modi@@
Five
dh@@
Katalo@@
state-@@
Lieferungen
Vet@@
ags
Genau@@
consec@@
DF
schrän@@
preci@@
Schulungen
polizei@@
BA@@
Veranstaltungsräume
celebration
thful
Course
Pfeiler
racy
nett
mitzuteilen
Zar@@
jack
Cypri@@
merkt
Bonus@@
bron@@
betreffende
Werkzeug@@
Wellnessbereich
Freilassung
herkömmlichen
lou
versicherungs@@
Bisch@@
laim@@
afft
ITE
Jas@@
mysteri@@
Gegen
MAS@@
Damals
cocktail
birgt
accomplished
sprechende
tura
halls
Kurdish
Löhne
älteste
malen
sidy
boot@@
handelte
laundry
verarbeiten
Einfach
Agent
steu@@
cure
Samu@@
anschließ@@
springs
म@@
ancen
steigerung
zoom
Glan@@
aufrecht
ket@@
eph@@
Berat@@
travel@@
grande
emergence
spri@@
Davi@@
höher@@
NATO-@@
deployed
populi@@
present@@
Kit
pfer@@
stainless
accompany
jour
Carl
faden
eme
gewichte
ventions
Unregelmäßigkeiten
Verwenden
anta
Interventionen
arch
speculation
dler
Streben
eder
Volkswirtschaft
Spek@@
appelliere
bay@@
gekrön@@
KM@@
drag
Et@@
sensib@@
Rober@@
anger
gian
democratically
Eis
sat
mounting
eingeschrän@@
act@@
unternimmt
ush@@
Ausgleich@@
asien
komfort@@
ą@@
xion
Gemeinschaftsebene
kub@@
socialist
Werde
Malm@@
Metal
apaz@@
spiritu@@
Filter@@
та@@
Incre@@
inion
euer@@
wählt
stly
entdeckte
poorer
Blumen
abgedeckt
Ment@@
bester
Schwanger@@
Toskana
Radisson
shortage
Check-In
intensity
Ausserdem
hinreich@@
influences
bestrebt
schär@@
wünschte
reminded
Scientific
teilnehmenden
experimental
getroffenen
gänzlich
incredibly
enny
Neigh@@
Romul@@
Auszeichnung
förderungs@@
Aufteilung
liest
inierte
varieties
zweites
elektrischen
repräsentiert
contradiction
täu@@
Near
Alle@@
Leser
Bearbeitungs@@
GMOs
reinen
gemeldet
geehrter
correspond
1956
llon
orph@@
grundsätz@@
Alexand@@
bürgerliche
Gesetzgeber
ehrgeizige
Aufbau@@
geschlossen@@
veranlassen
hne
dialo@@
irregularities
COD
Plätzen
angekommen
loh@@
Ausbruch
loten
tissue
turnover
denom@@
eventu@@
Schuld@@
ordnungen
Virtu@@
Clin@@
einschlägigen
servatives
real-time
reveals
put@@
kaner
barely
Befürchtungen
Commer@@
äck@@
Vieh@@
antwortet
setzungen
Iran@@
mill
acres
tiles
mög@@
picked
gewahrt
light@@
spective
possession
bilität
objections
Estate
verbesserten
NCC-@@
masters
itar@@
chains
flower
Inhalts@@
leck@@
accoun@@
gated
Klausel
zusammenhän@@
facilitating
vertrieben
embargo
replacing
resist
geplante
roph@@
zivi@@
mais
fred
anbieter
Bah@@
überwachung
rationen
beliebige
liberty
sheep
economists
BSE-@@
agenturen
Entschul@@
Fit@@
dü@@
herauszufinden
gesetze
hine
Happ@@
Motion
isieren
donation
kilom@@
ex-@@
pflicht
thirds
rek@@
Istri@@
Boutique
moment@@
nels
built-in
aufw@@
USE
lässigkeit
komb@@
multitude
wiederherzustellen
det@@
rechnet
EEC
LL@@
Eintritts@@
etch
nein
Rotterdam
dening
Freihandels@@
steil
upgraded
nine@@
ängen
Schauen
hion
Münzen
Gad@@
infrin@@
attracted
Speicherk@@
gelte
infection
zweier
mili@@
zuvor@@
ckey
Rhyth@@
VA
Schienen@@
11-@@
vorwiegend
king@@
Genfer
directors
Ethernet
diameter
vorüber@@
Schriften
billions
second-@@
richtete
bridges
Appar@@
Gat@@
designing
Anstatt
Provence
Business-@@
amentos
earnings
DB@@
Enga@@
Wohlergehen
descriptions
rays
Aluminium
German-@@
Dorf@@
manipulation
moul@@
umfangreiches
Gründer
Gleiche
normali@@
Almost
osity
Reisende
spektrum
ographi@@
aussieht
telefon@@
schwachen
Variablen
denz@@
etern
crop
Exporte
sanit@@
verlang@@
Flair
Politikern
ganzhei@@
brücke
mende
pse
UP
protein
Gefühle
verlor@@
momentum
ени@@
mitig@@
updating
outline
part-@@
Klu@@
Diskussions@@
speeds
consultants
Seven
Alicante
polnische
matching
häufigsten
ultur
Records
itement
Freund@@
unverändert
Partic@@
enttäu@@
rics
Care
hafen
Erwärmung
alleged
geprä@@
Legisl@@
Botschaften
Vali@@
rede
obliegt
Größen
Cadiz
zyklus
socio-economic
She@@
eliminated
Schriftliche
Hart@@
Spaniens
veränderten
PayPal
sozio@@
motto
basin
fem@@
aufgeteilt
lus
assu@@
Bayern
1957
utor
glichkeiten
Conil
Wechselkur@@
xing
Moo@@
Dalai
großzügig
successor
Autovermietung
personalized
cultivation
Electronic
ounce
mobil@@
decke
preparatory
install@@
NT@@
Di
wns
unilater@@
acid
vergabe
Check@@
terte
voor
dec
schot@@
inequalities
atus
stärker@@
inkl
sprüche
olf
Bestandteile
wachstum
voic@@
Spiegel@@
Sich@@
C.@@
partments
yen
historischer
Herzegowina
zona
fossil
einwand@@
Profil@@
hospitals
exemption
Symbole
kommend
call@@
reward
shipment
Bec@@
codi@@
überschritten
tract
behilflich
fortress
Verhältnis@@
willigen
best-@@
Maybe
Flusses
³
tschaft
LK@@
ested
variations
Bilder@@
Verstöße
izza
Persönlichkeit
mitting
disadvantaged
Unfall
ccer
weiß@@
hosp@@
Heraus@@
ihrerseits
glas@@
ле@@
gedenkt
Wallström
sof@@
dlern
factories
ти@@
Fass@@
älen
Aufstockung
Varianten
schlu@@
injection
folgend
Marra@@
bräu@@
Anbau
Applikation
sensiblen
kW
Sciences
schwar@@
alleg@@
Magazin
uries
Dauer@@
shoulder
rial
ularly
Wiederaufnahme
virtuelle
strongest
Teilnehmer@@
halbe
tilien
ühlen
rote
Iber@@
verlaufen
unterrichtet
php@@
nesses
Afghan
rises
bibliothe@@
teeth
Besatzung
progno@@
atis@@
graf@@
Meeres
enab@@
Mr@@
Funk@@
analog
obgleich
Official
fängt
Exist@@
einräumen
Evaluierung
11.00
Berichterstattung
lebens
strip
Stärken
ic-@@
ode
Energiet@@
Nahrung
multination@@
Arabia
privat
Genehm@@
häufi@@
api@@
erledigen
001
verweigert
treating
Seminar
Lettland
wag@@
Made
1900
gängigen
1965
Protektionismus
abzustimmen
Bügel@@
Russians
ausch
einzeln
folgendes
acity
predictable
unterstützten
tigungen
lub
strei@@
forti@@
besorgniserre@@
instruction
ganzes
Simon
Nau@@
thou
prüft
atics
Camping@@
ser-@@
edt
Feedback
Belastungen
ILO
Anmel@@
altogether
Dün@@
Lebensbedingungen
beck
stamp@@
entscheidungen
verfü@@
sitzt
hinausgehen
beau@@
bring@@
AVI
ism@@
ziehungs@@
verfassungs@@
115
Markus
echtes
trun@@
Streit
Claude
mont
recipient
Color
Tunes
Erdgeschoss
ähnlicher
Erzeugnissen
cham@@
disadvantage
deterior@@
Beantwortung
Experten@@
dul
assor@@
commissioned
cryst@@
Sün@@
scrat@@
protesti@@
Around
Stoff@@
proofed
guiding
organisator@@
Certainly
varies
deliveries
punkt@@
posting
Paar
Kreis@@
undering
igungs@@
Stress
traten
rand
signatures
auber@@
1.0
Vertrauens@@
Befreiung
ção
EM-@@
commend
studierte
Flora
rüstung
Lic@@
Vergabe
fully-@@
Villen
befürchten
wesent@@
generates
gage
bettzimmer
rab@@
threaten
ehemali@@
Fische
Zoo
bein@@
Verfas@@
sme@@
Kirchen@@
zwecke
Riesen@@
bond
vermei@@
orientieren
Mist@@
Konsu@@
geschäfte
asymm@@
europaweit
attach@@
sciences
Palm
broke
wissens@@
energy-@@
INI
Gebäu@@
Coff@@
tired
esto
tackled
längeren
verfasst
Cambridge
Cyber@@
ethnische
accountable
Eingan@@
ambots
Christop@@
Größen@@
mmer
baum
schrecklichen
São
tune
Chro@@
Cany@@
üpp@@
Arafat
vertrags
transform@@
vulnerability
impe@@
hten
Venti@@
wirtschaft@@
Übersetz@@
offensive
Reich@@
streng@@
Wan@@
Erleichterung
Kohle
vertrauens@@
Kolumbien
befin@@
gaps
Quick@@
strich
ampli@@
catalog
Fahren
vio
ă@@
pragmatic
zwingend
Vinc@@
tar
richtlinien
Weihnachten
ill-@@
fachen
corresponds
daraufhin
distances
unglück@@
Teils
begannen
Patch
asty
umfangreich@@
elimination
lässig
Oase
psycho@@
Liikanen
renovation
stuft
sahen
krei@@
beeindruckenden
vorgaben
gates
cand@@
unterschied@@
erospace
Wäldern
phar@@
tti
attack@@
sofor@@
Brüder
Erlaubnis
TP
land-@@
gleicht
bezir@@
zusätzlicher
refund
Atlantik
redund@@
befindlichen
operieren
Partition
Farm
avoid@@
arks
bean@@
appe
Auseinandersetzungen
architects
Corbett
CR
XL@@
Serviceleistungen
Ferrari
Exc@@
POR@@
yards
staff@@
Einwander@@
baden
Has
lebte
later@@
displaced
Nikol@@
Polo
Canc@@
GAT@@
ergie
leisch@@
lifetime
unvergleich@@
Frankfurter
wap
Erholungs@@
Dienstleistungsrichtlinie
Peru@@
ablen
einfluss@@
Stä@@
Lock@@
cury
ause
Gescheh@@
Patente
Zertifik@@
ffer@@
Reding
monastery
exercises
ausschließ@@
persönliches
eco-@@
ma-@@
temple
1200
derartiger
Füßen
confronted
gefährlicher
überarbeitet
unab@@
ritte
liance
DER@@
erledigt
finan@@
Speise@@
restlichen
konvention
fireplace
Dell
fabrics
1948
Schauspieler
rations@@
grades
delightful
gesetzgebung
Züge
fortgeschrit@@
beanspru@@
exportieren
Zufall
EOS
CNS
Richtungen
zeugt
läufig
haltungs@@
empf@@
östlich
iden
Logos
Rücksicht
Kürzungen
incurred
ehrgeizigen
ň@@
präsent
negligence
komponenten
infin@@
promptly
bene@@
symptoms
Total
ELL@@
grace
ermutigt
Währungsfonds
sidents
Chur@@
Hypothe@@
enchanting
accus@@
hill@@
unterstützte
konkreter
neuro@@
fabrik
lars
esische
Fris@@
honor
abhängt
shores
Infineon
grav@@
eses
einzigartiges
Instanz
Isa@@
zögern
Süß@@
bulk
twi@@
gic
marken
nachkommen
rag@@
Verurteilung
atin
Italia
ceas@@
metal@@
zün@@
Flugzeug@@
jen@@
GL@@
reas@@
seitigkeit
gesteuert
Try
Mitt@@
Liberals
college
inau@@
währung
gress@@
informations
livestock
Sogar
rehabilitation
Erdo@@
Abfahrt
berechnen
stron@@
gestütz@@
Konsequenz
PE@@
empfehle
cks@@
oun@@
siven
щ@@
Kongre@@
simpler
Rosa
inische
rami@@
bevorzugen
Ostse@@
Demokratischen
Eigentums
fürchte
Forschungs-
Meerblick
laptop
Nei@@
fortun@@
Auslieferung
angehört
mothers
Arn@@
staates
forbidden
vas
Stabilitätspakt
unberühr@@
Durchbruch
emotions
Strei@@
envis@@
echo@@
-Seiten
cave
liberale
lich-@@
Posten
Saudi@@
Akteuren
Urlaub@@
coin
woll@@
news@@
heiligen
dened
Prot@@
transeuropäischen
Zir@@
GVO
Tunnel
da-@@
jeglichen
Dub@@
Málaga
Mitentscheidung
AKP-Staaten
freiwillige
Dien@@
compensate
Schulung
Spiri@@
haltens
Pestizi@@
dies@@
ference
vei@@
fehlenden
Bestreben
läßlich
ologists
MEP
Liga
juice
anspruchsvollen
rigor@@
Behauptung
actu@@
pher@@
Gestern
entino
allevi@@
103
Konz@@
Imperial
pity
Carl@@
Körpers
gl.
Gastronomie
recreational
dliches
ärten
millenni@@
Innenhof
sooner
mg
Ethiop@@
age-@@
lindustrie
E-mail
äter
Zusammenhalts
Walking
möge
HER@@
own@@
nördlich
ф@@
Privatisierung
unterricht
Klärung
YO@@
Klei@@
Vorsorge@@
komplizi@@
drawings
decides
anmerken
repercussions
Dienstleister
casts
Milliarde
deter@@
HT
aspirations
blen@@
Rum@@
1966
Brief@@
VII
deinem
nachtei@@
scanner
fruit@@
collap@@
seinerzeit
Student@@
perat@@
gger
ffekt
competing
umgewandelt
frozen
fisher@@
ologist
investi@@
pump
prevail
ammer
Photocopying
allet
stehend
Ausgewogenheit
entierte
Käl@@
allgemein@@
Entsor@@
lib@@
entin
gewöh@@
Graz
seating
Öffnen
itiner@@
Sozialdemokratischen
könig@@
verlin@@
Liechtenstein
assemb@@
tragene
unterzeichnen
complied
vocal
ordentlich
Edit
rats@@
Ausdehnung
Linz
WAR@@
offenkundig
ernsten
Residenz
regulating
la-@@
endt
iten@@
Wertpapier@@
parliament@@
IS-@@
ernähr@@
gangs@@
Fotokopiereinrichtungen
ägyp@@
Sla@@
historisch
Jarzembowski
Baden-@@
Kino
umfassender
EWG
Län@@
vertiefen
positiver
Konsum
accurately
amos
NA@@
Amb@@
Yesterday
Strö@@
aesthetic
dine
interoper@@
diesjährigen
Friedensprozess
Hot
Erläu@@
Marktan@@
jenseits
erous
gewäs@@
alar@@
äuft
arious
Etiket@@
Lyn@@
abstimmung
ankommt
formulated
notify
gourmet
verification
SR@@
alisierungen
third-country
Zeitsch@@
Mec@@
meisterschaft
promotional
enshrined
EST@@
ender@@
versatile
mittelalter@@
chaos
Dolom@@
coa
schlug
rea
Verband
Informationsschalter
Betrieben
nahmen@@
soviel
seasonal
gendsten
Uganda
Energiem@@
tends
einander@@
gebil@@
güter
Haftbe@@
dear
LT@@
juristische
voraussichtlich
Impro@@
tariffs
Eden
massiv
Salvador
spot@@
wholly
Agen@@
herbeizuführen
ämmen
tings
occurring
technologien
Zuschauer
tschech@@
anth@@
sphase
finger
chas@@
occasionally
ausstellung
gt@@
auszubauen
sors
jury
5.00
intern
assumption
aktuell@@
substitute
Mam@@
toff@@
luxuriösen
hoben
begrüß@@
Serbian
Standorte
gnügen
Sech@@
specification
geordnete
Kohäsionsfonds
Servic@@
Weitergabe
elektro@@
Starting
Expo
tism
Fußgänger@@
Laufzeit
PR
Lärm
Käse
Fotografen
therapeutic
48@@
ambiguous
dener
coupled
shapes
blieben
photographer
drama
demic
wendi@@
erholsamen
verhaftet
conceived
professor
fragte
willen
Nachweis
voranzubringen
biking
Gall@@
augen@@
tlichkeit
dafri@@
Gig@@
commission@@
wle@@
Telekommunikation
Wirtschaft@@
Kuli@@
concer@@
konver@@
hun@@
Themas
zusammengefasst
langjährigen
gher
Akt
Ansonsten
verurs@@
aga@@
zzle
Spo@@
Krebs
Gewis@@
orthodo@@
Snacks
critics
conversation
reprodu@@
allgemeiner
Vorbeu@@
stücken
oul
seem@@
sno@@
credited
1962
ascript
Acrobat
geared
Democra@@
Branchen@@
Schir@@
herum@@
absoluten
sister
ANT@@
Director@@
gebern
kontinuierliche
ld
Silver
Wunsch@@
Platform
republi@@
großartigen
Miner@@
Orange
Unrecht
Frühling
Ideologie
Verpack@@
kontinuier@@
IMO
aber@@
adas
erstattet
Zagreb
ssed
Mitgliedstaates
schätze
intermedi@@
Restau@@
strecken
Rücktritt
risiko
Krankenhaus
licences
financially
Myanmar
Pflan@@
ankommen
Audio-@@
Ves@@
Fachleute
vic
ं
Authenti@@
appropriately
utable
Unfälle
royal
agnen
manoeu@@
flich
Dav@@
chill
Zoll
Streitigkeiten
discounts
cafes
ican
Codes
blas@@
Lagerung
Vormittag
encryption
process@@
applau@@
Verknüpfung
Deck@@
ject
Dek@@
Fine
balls
Öffent@@
business@@
Iceland
Australian
Buyer
cozy
profi@@
vocation
realities
sko@@
aufgegeben
vens
Richt@@
rahmen@@
angezogen
alarming
excluding
gion
liberalization
Meinungsfreiheit
Ou@@
thema
einnahmen
Share
Haushaltsausschusses
überschreiten
Naples
dehnen
Jeden
Baby
manipul@@
lität
MAN
Dimensionen
thy@@
bow
Spam
connects
Errungenschaften
stanzen
-and-@@
sixth
barri@@
Kommunismus
konzentri@@
Commons
Zeichen@@
räte
jahres
Koalition
biotechnology
privilege
Carmen
absta@@
Stück@@
240
horri@@
operativen
pause
CAD@@
bekistan
1939
fasste
staun@@
Kunsth@@
Arten@@
Hack@@
Fitnesscenter
Universitäts@@
Arctic
extre@@
Finan@@
Konzeption
pakete
Teh@@
ouren
Auswirkung
eler@@
conven@@
stamm@@
Aktualität
Sounds
Cotonou
höchstem
Gesundheitsversorgung
amaz@@
й@@
Glückwunsch
angem@@
08.@@
gepflegt
melten
issuing
containers
zh@@
mediterranen
Folgenab@@
essimis@@
Telefonnummer
einziger
tails
Anfänger
istics
solle
Integr@@
besie@@
SI
kunft
Seville
öne
Carlo
Haushaltskontrolle
did@@
Reservierungen
foun@@
Trading
kov
attle
lical
Brot
Pilot
conception
9.00
Rhine
unternehmen@@
Bedauern
ambigu@@
tap
Ausflug
beurteilt
Divi@@
wörter
Betrü@@
sebene
exceeded
Einigkeit
schwarze
initiativen
Acces@@
elligkeit
Abent@@
geist
Transfer@@
angebot@@
dable
och
ghty
Messung
Elisa@@
voy
exklusi@@
elo@@
film@@
ausgeht
Zen@@
amerikan@@
Meilenst@@
alistic
Jesolo
Renten
Kampagnen
geschaff@@
lamp@@
Gehäuse
ferenz
rale
1961
Dubrovnik
Auftritt
Kis@@
etabliert
persistent
ordnet
Wortlaut
[...]
